/**
  ******************************************************************************
  * @file    network_data.c
  * @author  AST Embedded Analytics Research Platform
  * @date    2026-06-05T15:48:46+0800
  * @brief   AI Tool Automatic Code Generator for Embedded NN computing
  ******************************************************************************
  * Copyright (c) 2026 STMicroelectronics.
  * All rights reserved.
  *
  * This software is licensed under terms that can be found in the LICENSE file
  * in the root directory of this software component.
  * If no LICENSE file comes with this software, it is provided AS-IS.
  ******************************************************************************
  */

#include "network_data.h"
STAI_ALIGNED(8)
const uint64_t g_network_weights_array[36920] = {
  0xb83417cb3973151fU, 0xbbb1feb0399f742aU, 0xbbac4f61bbe5370cU, 0x390b6dd83a15ca86U,
  0x3ade3d283a8f4376U, 0x3b37e96f3b2b4fd2U, 0x37a800a9389bf5beU, 0x3a6b9bbc3ad87668U,
  0x3b2a02a83ab3e364U, 0x385ea8683758dad3U, 0x3a7e615bba562d7eU, 0x3a68e9443a1a3cedU,
  0xb90a2f8c38f60199U, 0x3ad1bb2fb86bfe02U, 0x3a6c8d07badad9e9U, 0xbb0e9bd83ac67986U,
  0x3a88c4663a8abcfeU, 0x3a1670f1bb1543beU, 0xbb12f0a33aee40f7U, 0x3ae43c3ab904f76aU,
  0x390e814fbb3cc36dU, 0xbb1478773b0280cfU, 0x3b23b87e3a27e5b1U, 0xba19dc63bae67850U,
  0xbb1392dc3b2b0ac7U, 0x3b1a221db8b1b193U, 0x39932b74bb08a41bU, 0x3a11579a3a8661d1U,
  0x3a0c3ee33a6aa799U, 0x3a5d5a1d3aa31e32U, 0x3b059e3239229674U, 0xbb207a373ac12a48U,
  0xbb5ff739bb844263U, 0xbab52a39ba8a9fcdU, 0x3ac3d041bae2b03cU, 0x3af74cce3b2da5e0U,
  0xbb17c259ba657e62U, 0xb60a5195ba88573bU, 0xb9974282ba1f38bbU, 0x3ac64e073a78a645U,
  0x3a1716e33ab5a0f2U, 0xbae3b2023a8d60fdU, 0x3aa14a353a8eebdbU, 0x39c64ec8bb160da4U,
  0xbaceac893a7e9012U, 0x3ab087973a857616U, 0x3ae87f79baf1ea18U, 0xbb0d7a803ade88e8U,
  0x3aa846723a6cd71cU, 0xb8b0825bbaccab00U, 0xba8565e73a83b0bdU, 0x3a754d163972227fU,
  0xb983d89bbacbe0a3U, 0xba3ac40c3a5c99e3U, 0x3b34bbb7bad7d17cU, 0xbb0dcbbc382dad55U,
  0xbac365373b296882U, 0x3b157388bafe3a4bU, 0xbaca569fba1630cdU, 0xba95bb4a3b3b59d4U,
  0x3b670630bab2a834U, 0xbaa9da20baf67f99U, 0xba4d5ef03b4db7a9U, 0x3aef9306ba5a69aaU,
  0xba57b075babd514fU, 0xbb08a9123b17d50dU, 0x3b0bf3dfba5df45aU, 0x38e87af7ba40eefbU,
  0x3a2c63413a9172e8U, 0x3ade845139ea3bfeU, 0x39b210d73a75e12fU, 0x3a3cc15c3abcde5aU,
  0x3a20b094b95a9fddU, 0xb9d470d9b8978926U, 0xb9a00f103a2e21bbU, 0x398c8aa0ba03e183U,
  0xb9343ce5ba0e83f8U, 0xb9b9989f39a91c92U, 0x38b42c6bba15af5bU, 0xb7db2291ba7ac248U,
  0xba235ded399fadf1U, 0x3a41badeb9120721U, 0x3a5e7f3a3a39a032U, 0x3a5010c73a45f417U,
  0xbb1cbc7bbaa18aa9U, 0x3ad6c254bb1de42bU, 0x3b34e86b3b389595U, 0x3ad2cf793ac87429U,
  0xbb11a3803ad7b38dU, 0xbb67bee5bb69778bU, 0x3aa28e8b3988ab6cU, 0xb9f8b7863ac36747U,
  0xb8615dbfb985a5ceU, 0xbaa14a4fb9ac48d9U, 0xb8aa8dbeba9fdbabU, 0x39913368ba053b94U,
  0xba83e525b9ee96acU, 0xba16415d3a015957U, 0xb9037080ba1db4beU, 0xbab8c87539444063U,
  0xbad0c43438e331f2U, 0xbaa7021dbb69b8edU, 0xb9ccd4c83a6c1934U, 0x3aab23fc3a4e3fa1U,
  0x39e330d3ba0dfc7eU, 0xbae1b1d23a2c8d16U, 0x3a95b7933828aa93U, 0x39565532ba3bdf0bU,
  0x3af21e3e39bb4672U, 0x3ae5e0ab3a788dedU, 0x3b58ce0b3b617953U, 0x3b27710a3a97c0c5U,
  0x3a16f7973b0c44abU, 0x3a28adea3a3b722dU, 0xb9c943c8b98f775aU, 0x39cd9fba39b0a7adU,
  0x39fc1d3139d68497U, 0xb98f88853a857ba2U, 0xbb67980db984e039U, 0xbb925546bbb330b1U,
  0xbb4cccd2bad6f997U, 0xba138650bb34bee9U, 0xba76466f39edb11aU, 0x3ab7e2663aadf38cU,
  0x3af2595c3b319af4U, 0x3b4de44f3aadc3f6U, 0x3aed88fd3a96b447U, 0xbb4096d7b9954811U,
  0xbb3af05bbb703d02U, 0xbbb1e41abb70bc3eU, 0xb8737431bb796299U, 0xba87fe523aba0cf7U,
  0x3b0f1ce03ad31a18U, 0x3947ccc43b2a39abU, 0x3ac594a438d61274U, 0xba974b39b990c5a8U,
  0xb9d6d3f43953bd85U, 0xb900885cbaabe47cU, 0xb9e34ff33914f213U, 0xb99fff7e3a16162eU,
  0xba1551dabac59c33U, 0xbad53353b9e1be82U, 0x396611c8ba49faf0U, 0x37c1cce7ba2ff230U,
  0xba2a46b939278703U, 0x382eebdfb9be09d5U, 0xba152389ba67403bU, 0xba0c2902398f9f7aU,
  0x3a289c59b9ba0ef7U, 0x3a485dc9bab7bd85U, 0xbacc9253b9c45715U, 0x3a702ebf3ae4dd63U,
  0x3a508911bab5fbd1U, 0xbaa97852b9788e0dU, 0xb9f33d4c3aa2d68bU, 0x3b5b30f0ba06326fU,
  0xbaa71cbbb7cb6d73U, 0x3aaf13253adec585U, 0xb9b2d9b0ba7587dcU, 0xba264bc53a63305dU,
  0x3a8fb03e3aa2d35fU, 0x38b2c0f3baa912feU, 0xbbbb282cbb6bd36eU, 0x3b14cc75bb9a4c7eU,
  0x3afc51893a910a4fU, 0x39356b3e3a241e76U, 0xbaf4709c39c9cac4U, 0xbb40a902bb42f9ddU,
  0x3b0350573b0339b7U, 0x3a06caba3b04f7f4U, 0x3a65b49b3a98bd37U, 0x3ae514b23a9dee10U,
  0xb8cd83573ab18d77U, 0x3a7061b43a925911U, 0x3a40602cba53d5f3U, 0xb9c78da439da92d0U,
  0xbab4d567b9e471e9U, 0x3ab34d773a607a72U, 0x3a25613f3ae0afd3U, 0xb98652ac396df92bU,
  0x3ad31bac3a142a59U, 0x3a8e81533b43fc0dU, 0x3ba6cf4a3b2603c5U, 0x3a352df2b9831afaU,
  0xbab653e13b01b89eU, 0xbb418572bb29c8e5U, 0xbb84ab53bb3dbf85U, 0x3a6d08c7bb69307dU,
  0xba766ab4b8df1611U, 0x3b1841763a3b0f83U, 0x3b3a01da3a5befcdU, 0x3b04e9913b8d9e08U,
  0x3b3260473aae0424U, 0x3a88f1a33abc2d3fU, 0x3a45e38f3aa4f8bfU, 0x3a6770f53a6b4aadU,
  0x3aa9c35bb99cd421U, 0x3ac2dc633aa65b40U, 0xbb2afb99bae94ce0U, 0xbb9010d2ba86fa8cU,
  0xbb971a75bbb06902U, 0xbb67557ebb27fb3aU, 0x39d21432baabc158U, 0x38efda10ba1d9fd6U,
  0xba5e0be83930b1fbU, 0x39eb50f53a2575d1U, 0xb98e6b96ba24fe9fU, 0xba521f67ba82a32aU,
  0xbaf3b7823aa0e9fcU, 0x3a98feddbad4cd2bU, 0xba020318ba18694fU, 0xba719d383aa0a28aU,
  0x3af02788ba160836U, 0xba89a301babd83b9U, 0xba7751913b05ab00U, 0x3acdd658ba3acfa5U,
  0x3e5368d83e628f2fU, 0x3e9733023e85a61cU, 0xbee0e0dd3e605c38U, 0x3f2e5a443e814d71U,
  0x3e4b8ad03e7c260bU, 0x3d3022703edd7ec0U, 0x3e331a583e51e375U, 0x3e8f0efdbebcc242U,
  0xbcf701f5bef3d911U, 0xbd413ed7bdf1ce5cU, 0xbbdcf5f0bd0a3c32U, 0x3db31882bdd047e3U,
  0x3dd258703ea21689U, 0x3d246809bd01724cU, 0x3d97bee5bee5b27dU, 0x3d188883be4db72dU,
  0xbd93407cbca76f62U, 0x3e92883abd29125cU, 0x3c62c1d1be97d696U, 0xbe05547ebd8fe3c7U,
  0xbcd711d13c4dea8cU, 0xbeee4206be1e5193U, 0xbd47dddcbc99d94bU, 0xbf47475cbd3c6f61U,
  0x3c9391e03e04fae0U, 0xbc260e853e1fa9dfU, 0x3e491dfebd79a9a0U, 0x3ce405a0be3ea12fU,
  0xbe1a4358beb61375U, 0x3dc073453e674391U, 0xbe6810263e2e85bbU, 0x3d86b19a3e9ac9f2U,
  0x3b23b9193da4f915U, 0xbdd04f13be0f9dc3U, 0xbe2e4011bdde86bfU, 0xbdf2d46abda99213U,
  0xbe1e80103e4314a3U, 0xbe1825e3be92c3c3U, 0x3ebb849ebdc86881U, 0xbe12b367be046008U,
  0x3ed288173dd2cf8dU, 0x3e68e6e7bdcc68aaU, 0x3e97a3253efef049U, 0xbce5f5a9bccc8c0cU,
  0x3dbc9f2d3db49396U, 0x3f2667e1be6cba35U, 0x3dbf13553d6722ceU, 0x3e335c73bdce2af8U,
  0xbd6b7287be314b46U, 0x3d42a6833e599a60U, 0xbe29d8a0bd2c3893U, 0x3e4be49ebe23a0dfU,
  0xbe0db7bd3e9432f2U, 0xbd90dc553e87d4dfU, 0xbc1c980e3d90c418U, 0x3d687fa5be2089fcU,
  0x3dae543f3e26a15eU, 0xbd1c105f3ca7dc60U, 0xbe252e87bd7d3098U, 0x3e63b140bd255bc3U,
  0x3d23b4843d3ad91bU, 0xbed844073e940676U, 0xbcbc5c5dbc7eb65cU, 0x3e4f37e43c10d5d5U,
  0x3b10edae3d789af3U, 0xbd94d027bf039d73U, 0x3d578eb6bbfb0bbdU, 0x3d0ddea03e33b24cU,
  0xbc3484f3be07a9adU, 0x3d4872c43d1cc53eU, 0xbe9fc6b2bf07d6b5U, 0x3d2bda703de1059cU,
  0xbd6424683df7736eU, 0xbd8122f4be7a75daU, 0x3dd008babd4d10ccU, 0x3d612a4cbd9ccb2dU,
  0xbdb79682bf1ec42eU, 0x3b316ea53e0266acU, 0xbea683e03dfd4fecU, 0x3df192b83ef15517U,
  0xbca8c1d03d0dd163U, 0xbca52b5cbb9dd0faU, 0xbe20f24abc3af9bfU, 0x3e646b113da0d0fcU,
  0x3dadeab3bdbb5718U, 0xbeed25653ed1e6beU, 0xbe4c2a163d98f961U, 0x3e84fc383e58588dU,
  0xbf115bd7bde5f76cU, 0xbe7c7282bd75a925U, 0xbdd360ac3e734aefU, 0xbecbc7bcbdfbe10aU,
  0x3c9ef0f7bd17d819U, 0xbe51d791bdcc8061U, 0xbd184347bdbeedb3U, 0x3d8176133d134e3bU,
  0x3e4ce7623c1bd098U, 0xbd513d1ebba0e0bdU, 0xbebf12133cf59dacU, 0x3f15893bbcb90c39U,
  0x3e0797ab3e26300bU, 0xbd64365a3f0a326fU, 0x3e0ce3ac3cec8ed4U, 0x3ea56898bd9273e8U,
  0xbd82a57c3e20490aU, 0xbd9c9b263e780dc2U, 0x3deb4588bd5c9b93U, 0xbc0c0fd3bf0ac4b1U,
  0xbe601ae5becaa584U, 0xbcf55c2b3e40b607U, 0xbe2fad803d8cd00fU, 0x3c1376f83e27d715U,
  0xbeaa11c4bd841a7fU, 0xbf3d073bbd7ffc60U, 0x3d1409ddbeefdd48U, 0xbe31e263be17d131U,
  0xbd669b843d8c72d4U, 0x3e6b23fabeb3c81cU, 0x3d720d1fbe0aabb3U, 0x3cfd3d22be30bc13U,
  0x3d66b2633e6484bbU, 0x3d463b69be90dc1eU, 0x3e1aba403c53eff0U, 0xbdbfe2f83ee83f1cU,
  0x3dd88cb8be9fb20cU, 0x3d817c07bd7affe4U, 0xbe83e07bbc2a139bU, 0xbce93e0f3ebfc761U,
  0x3be3558c3e7fafc8U, 0xbd38e6e3be1f4f0bU, 0x3e6311e7bda92b4aU, 0xbe0b1d473e0cfb3aU,
  0xbe9e0a4abe15828aU, 0xbe927075be11f5ddU, 0x3e19fbba3dc9229fU, 0x3dc73101bb41903dU,
  0x3e3bacf0bcef00ecU, 0x3dbed5a2bdb49fccU, 0xbd9372aabcdec72fU, 0x3e4c60813f019f20U,
  0x3d2459923c8c4680U, 0x3d8e61153df74f5bU, 0x3dcd39343dac9c7aU, 0x3e12e6753c8455e5U,
  0xbdc24d25bdabbc82U, 0xbe7bb252bd941508U, 0x3e0c69113dd93d0cU, 0x3fb9647a3eb43986U,
  0xbdd1882d3f2f7f86U, 0xbd5a13e43f072f69U, 0x3f4fbafa3dd4e4dcU, 0xbdc3c4273eabf55dU,
  0xbe7b1babbe81bc85U, 0xbdb2b2673e856930U, 0xbf02cfdebf0a26d0U, 0x3f83e123bfccd921U,
  0x3f4311c6bf3b51e1U, 0xbdf030f33ef9a57bU, 0xbe00a5b9bf0a782dU, 0x3feb2b233f1a7846U,
  0xbf03321c3f951be5U, 0xbf7f7624bf5bac6fU, 0x3e335c27bd5ab491U, 0xbda7b98c3eb0d94bU,
  0xbdb47c923f7029d7U, 0xbeadc8af3e565dddU, 0xbd9368b13d82df80U, 0xbf248443bfa121bfU,
  0x4019d3543ecec2f7U, 0xbdc13995bfbb0c29U, 0x3f0f2f433e575358U, 0xbfb90bdd3edcac50U,
  0x4005cd4b3f1923bcU, 0x4011eb15c06bb6cdU, 0xbfa538403ed23cb5U, 0x3d46c35e3f046226U,
  0xbd9f1db13f2924ecU, 0x3fb64539be4724adU, 0x3d3656e6be9e7024U, 0xbcedb0e83e725daaU,
  0xbe917c2abb3b73acU, 0x3ee99316bdcb4948U, 0x3f1553033f8eddecU, 0x3e0e462f3d5a560aU,
  0x3f1e2f593d9df431U, 0x3f542ebd3fa3531cU, 0xbf68808bbe20fc93U, 0xbf06f8bf3e701ff7U,
  0xbf102336bf4fdaa3U, 0x3f11183a3e3eac6bU, 0x3ea4c2b03c658beeU, 0x3e9c85083f287cdfU,
  0x3e0ef75bbc34ba53U, 0x3c40dccfbdd3f35dU, 0x3e6e4bd73eef51afU, 0x3f15e1c83e04b736U,
  0x3da8af073e3ccde8U, 0xbd6aa097bdb3039bU, 0x3eb5813fbd8a0775U, 0xbeaf5b043e18a720U,
  0xbee1d0903fec51c1U, 0x3db575073d8d428fU, 0x3c9c6380bcc58312U, 0x3dc357f53ec717eeU,
  0x3f3b896f3db6947fU, 0xbe3d6ba83e5b3e83U, 0xbe1827ba3e2f9722U, 0xbec4a691bf15644aU,
  0x3f36bdd7bdfff05cU, 0xbef179c9bf83c205U, 0x3e51bfa73e70ae62U, 0xbc5e593dbe9516bcU,
  0x3e38e1f33ea780abU, 0xc00a4de6bf0cc79eU, 0x3ef12ff0bf5c7aa4U, 0x3f8cb5a23fa0c759U,
  0x3f87024c3ebacebbU, 0x3c391f0cbdb6ab32U, 0xbcbf5e23be699f1cU, 0x3e1d819d3c94fa83U,
  0x3d83fdfc3f283c7fU, 0x3e67a0083f58d663U, 0x3f90e6783eb6928cU, 0xbc007a673e867838U,
  0xbcdba0fb3d63fe68U, 0xbec055e3bdf5a0f1U, 0xbd5d26d6bdb9a1d1U, 0x3e93ed223e9940a4U,
  0xbeadf457bf0043b2U, 0xbe02441f3d1e1c21U, 0x3d8d26c53dd1fe62U, 0xbf2e3b43b86191beU,
  0x3cda38afbe8adb0cU, 0xbf0948b73e8c8953U, 0xbef6cb013e23b0baU, 0xbe4c7b56bd5553d6U,
  0xbdb40806bd0c5e30U, 0x3e36293bbd064471U, 0xbb880e1a3ec77b1dU, 0xbed4d161be886279U,
  0x3eb673623cc4e134U, 0x3ca28324bc47a8f6U, 0xbc66287ebe8b3fe0U, 0xbafe1a3b3ccb99b3U,
  0x3d3b78e4bca19222U, 0xbeb10aee3ec0b224U, 0xbf0bae543c6f83f9U, 0xbc50fbb03d0115ceU,
  0xbe6378823d3ba3d2U, 0x3ccec62ebd689e86U, 0xbceb0813bdcd5af1U, 0xbb3f746e3c8b4927U,
  0xbd899b9ebcf4d054U, 0xbee62b073f06ad93U, 0x3e802ae2bbd27f2eU, 0x3bcc8d63bd1c9cdbU,
  0x3e9a87bf3e819131U, 0x3d14cbbe3e423afeU, 0x3de6ae243ee755f4U, 0xbe0a179abe22cb1cU,
  0x3e37e2c3bd434ab5U, 0x3cb15df6bb4ac3f6U, 0x3e83fae2bd1856e8U, 0xbda16d213de702f3U,
  0x3caee5fbbefe6e4aU, 0xbe918beebf26a1ccU, 0x3ef9f6883d9396beU, 0x3e21f928be41e165U,
  0x3e1efe833d29b512U, 0xbc991e153c5dceadU, 0xbd71cf75bf05031bU, 0xbe2297a13ef53bfbU,
  0x3ebe2a103e64a33dU, 0x3e04c03e3df47846U, 0x3d7327f03b9c2de5U, 0x3d930ec43d238491U,
  0x3e04247e3ea5919eU, 0x3e9f5652bcea4ebaU, 0xbed9f3993dcaf34cU, 0x3e12b2663e2ad1b9U,
  0x3d8e06493db7a771U, 0x3c93310ebe4db797U, 0x3cd425493d61d6cfU, 0x3d46a4b83dcb5f7cU,
  0x3f205efd3eb06ddbU, 0xbead78ab3d84d39bU, 0x3d978f2f3dc3389cU, 0x3cc07623be7792d3U,
  0xbd47e7f1bd0dd374U, 0xbcab026b3d002101U, 0xbd90901dbf122003U, 0xbc93475cbd90f5d4U,
  0xbdac6a023d56c45aU, 0x3efa032f3e83bfc7U, 0xbd0a0da8bd4c807eU, 0x3ab629553e16891bU,
  0xbbec5f153ebf1fe1U, 0x3e8b61a6be397665U, 0xbe926e81bca90b0aU, 0xbf3bd232bf12c527U,
  0x3e23ea4e3e7e132cU, 0xbddce6e83c6000c8U, 0x3d18ab79be2c3ea4U, 0x3e530a37be8f16e2U,
  0x3f174697bdf0d5afU, 0xbd9c696ebafa4df4U, 0x3d87c4c73f515dbaU, 0xbcfe4953bc99b84eU,
  0xbdb1665ebe06c7bdU, 0x3f172ae13eec7fe1U, 0xbf043ac2bdae2963U, 0xbcfb0674bdcfb953U,
  0xbe60cd05bb4ee8f4U, 0xbd7cb25cbcbc2c78U, 0xbb8f4f31bd474224U, 0xbe08009fbd9d3ca0U,
  0x3cfc1494bd7626a1U, 0xbeb8e2c43dd7169bU, 0x3f1df2bfbd86bf30U, 0xbd8e33e0bd8c5104U,
  0x3cbc29a3be356590U, 0xbd3708ccbe28a29eU, 0x3e58b5a13df82c80U, 0xbe8dab6c3e85afb4U,
  0xbe3c1cadbe339e48U, 0xbd89d4b7babbfe72U, 0x3be1259d3f059d7cU, 0xbd6129423ebfe2c2U,
  0x3f073bb5bcf45f0dU, 0x3ba105753cab59bbU, 0xbc8c18a5be38609aU, 0xbc1d630dbbe93f60U,
  0x3ca1de9cbbdb7dedU, 0xbb73c34d3e11e7b5U, 0xbf07e0afbd10121cU, 0x3c75e3ce3c4e9be3U,
  0x3d37c7ad3de58508U, 0x3ce7fddebddc9bceU, 0x3c44ccf43efe6d4dU, 0x3cb6ccf73d39a88cU,
  0xbc3ce776bdad1fcaU, 0xbed7a6f2bde1c703U, 0x3d1da7e63d6ef248U, 0x3c17db1ebce9869fU,
  0x3eb2fabf3d79d944U, 0x3a847c7c3d4693d2U, 0xbaba4d94bbd90fd6U, 0xbd83b0d4bcea5ff7U,
  0x3ce7bafdbcd782f1U, 0xbed601563e726662U, 0xbe5f66dcbc3432baU, 0xbca9c7b1bd8c236cU,
  0xbb02cea539969b33U, 0x3e14e12c3e40be2fU, 0x3cd354a8bd8a2207U, 0xbd06d3a9be69a66dU,
  0xbb8cb3693d891954U, 0x3e6dd6efbe4c84a1U, 0x3dbc388cbc1c42c8U, 0x3e83be0bbde360f4U,
  0x3d95d5d7bcb69ea1U, 0x3be61b43bc0c2c06U, 0x3ce461bd3f5ce493U, 0xbc5115b33d0dae66U,
  0xbc3e3e163d403ac3U, 0xbd066847bd3ae3eeU, 0xbf5588393d4c3b80U, 0xbbea3dc93d3f7e63U,
  0xbd209421bc8650f2U, 0xbf2f1beabea15453U, 0xbf220f583e092902U, 0xbc201490be982c51U,
  0x3fae78f03e2a7d09U, 0x3d9512723e8af8bbU, 0x3de31ffa3f479407U, 0xbdb610b73f2130fbU,
  0xbe6d49663ee83f33U, 0xbdb55dbebff25366U, 0x3f9f428f3d899b8aU, 0x3d8aa3d33ea609c8U,
  0xbde599d6bf61aee3U, 0xbd29b28abe31d4b2U, 0xbd09fc62bd92c190U, 0xbc106cacbdc473b4U,
  0xbf5732eb3c166c16U, 0xbc7d9ee63b5cd835U, 0xbcc483a3bd471e1fU, 0x3e942f8ebd0b3d99U,
  0xbe285548be089639U, 0xbe7482973fb5493dU, 0xbf05f762be1552a0U, 0x3d5d11fabe01966dU,
  0x3d9add64be1a774bU, 0x3f8c28f9bdcfc0a8U, 0x3cb8cc25bde648b5U, 0xbcbef7f1bc9b6b59U,
  0xbf27906bbdadc256U, 0x3d0cd34ebdf28336U, 0xbec60a11bf2b9452U, 0x3fad6a773e809bccU,
  0x3cb45d483e4560d0U, 0xbc262c2b3c2b5a25U, 0x3f4e1e13bcf0fc06U, 0x3c881fbc3bef8969U,
  0xbbe760f53d94f37eU, 0x3d5e1c4a3d5ebdd4U, 0x3e145a383cf7cd06U, 0x3dca8324bfbc1ea5U,
  0xbe1860c03e29fba7U, 0x3d3a16033d955d43U, 0xbe015815bf1bb8eeU, 0xbf002f4bbf060e7bU,
  0xbdb07ff03fea1106U, 0x3e8df818be441d60U, 0xbdafa7c3bd2bbc7fU, 0xbc8dbaee3c6b1446U,
  0x3d2edee7bf84c7cbU, 0xbc9d87dfbbfcb8d7U, 0xbddd30fabd7b2a7bU, 0x3e40978c3f4204b3U,
  0x3f3bb719bf3d4e58U, 0xbf58a61b3f2a0a64U, 0x3d0c5953bf2df3d4U, 0xbee9980fbb8c2a98U,
  0xbfb3fb633e329cd0U, 0x3f11522e3e87ddb5U, 0x3f156b02be9d24c9U, 0x3e07c11b3ee81264U,
  0xbe721db2bf94239dU, 0x3e9b291a3f8722b9U, 0x3eb8939fbf8ecc3eU, 0xbeca3a1f3f7a7d06U,
  0x3ee8ff453f77b624U, 0x3dff87963ea65913U, 0x3efa459c3c59da20U, 0x3f0aef873f13d7baU,
  0x3f93502c3e71692fU, 0x3e926fa93f8fc766U, 0x3daa6c5b3f316a1eU, 0x3d57563c3e88a9acU,
  0xbdd9eea6bdbe5b52U, 0x3b752e233d75960cU, 0xbd9e3936bc96df74U, 0xbe5bedf63d314fc5U,
  0xbddfcc6ebdee8fe2U, 0x3c93ed053ee47a7bU, 0xbe14eda03d796b59U, 0xbafc5ce9bde7bec7U,
  0x3e2b2095be278f3fU, 0xbd916a39bd871065U, 0xbd0c62a8bcb02123U, 0xbdaac52ebf0eaa98U,
  0xbdf105cabdfb6334U, 0xbe955dd13d8cedd1U, 0xbdb476393d94a5afU, 0xbe664098be0f7a9cU,
  0xbd834408be4192ffU, 0x3e1732493dea1097U, 0xbdd8b0053d1328e4U, 0xbe144da73e47b67dU,
  0x3e29e6c53d34210fU, 0x3d2c62633c8cde28U, 0x3db2d8213dae56eeU, 0x3d5ceb53bda5d210U,
  0x3dac27943e0ba09dU, 0x3db3246c3d981c5cU, 0x3eb69cd1bd98c92dU, 0xbcdec4513d15aceaU,
  0xbdf64e423c17795aU, 0x3dc4d40cbe411d57U, 0x3e14d4633e0dd408U, 0x3db961e4be083b1dU,
  0x3ec58cb0be9c4f39U, 0x3dd0d8783d9d7283U, 0x3e6fc9493c3dc0faU, 0xbe24e6dc3e15fdeeU,
  0x3d0e96013c9ed40cU, 0xbda0a473bd230923U, 0xbbac2084bd631993U, 0xbd48697ebdfb49f3U,
  0xbe4432c8bde06104U, 0xbe5d3643bde5562bU, 0xbdeecdcd3dcca0e7U, 0xbe156718be929cc1U,
  0xbd5336b8be71b81bU, 0xbd64dfdf3e0c3226U, 0x3d23e3413d58e665U, 0x3d46c0d73ddbb0b2U,
  0x3e1660a83d40cc25U, 0xbc5630eb3929177dU, 0x3d39b6b63c959b99U, 0x3df32744bd4049e7U,
  0xbe20af2b3c04c3aeU, 0xbcab589cbd14af3bU, 0x3c54f1793ede7500U, 0xbcbd2519bdd0adafU,
  0xbef1abac3df02a3aU, 0xbd883abbbcf1a117U, 0xbe11a7813d790587U, 0x3de4e9b63afc4725U,
  0xbe4deeb9be87e172U, 0xbb8e7ffc3e315501U, 0x3cf5cbc43d43f7f1U, 0xbd6406f33e069f72U,
  0xbde50649bdbdf42bU, 0xbc899ec2bd70a3e9U, 0x3e147f103d988c64U, 0xbe3bea20be05db56U,
  0x3e5b41ca3e8ddc7aU, 0xbc0b69da3d74d5aeU, 0xbd931315be521046U, 0xbe56b0b43eb0bc60U,
  0x3ee15b7cbe566f96U, 0xbce864cbbced0aa0U, 0xbddd59fa3df5abddU, 0x3d844af83e18c9c7U,
  0xbce11455bb115719U, 0x3d457a4abdec4e05U, 0x3dda577dbe4726e8U, 0x3dcfd7c1bd4ecc9fU,
  0xbe3397393eae88e5U, 0xbe2274dbbd1402f3U, 0xbe37d265bda17b51U, 0xbda50bc2bdd14c7eU,
  0x3e1c3383bda17efcU, 0xbd82ec7dbcfafe84U, 0xbdb9953b3da62314U, 0xbdf15c4ebddab3c3U,
  0x3c920d40be832949U, 0xbcc8a2b63cd36c88U, 0x3d28379f3ddcb5f6U, 0xbdd405c73e06851fU,
  0xbe382000be73d4f6U, 0xbd18bc84be0de478U, 0x3bcb5f7abe0e8eaeU, 0x3cb9894ebd13613cU,
  0x3eb773f4be1f1493U, 0xbcdc9311bc7e110cU, 0x3db3af5ebd0eb5f6U, 0x3dc62bb2bd56b604U,
  0xbe5341463d0584c9U, 0xbd9cf50f3e82ca86U, 0x3abe9591bd0228faU, 0x3d28eb473d8b520dU,
  0xbe0e8ae33e1c0b80U, 0x3c794d873d28621fU, 0x3d9b7d693d22b415U, 0xbe6240cebded5c0aU,
  0xbb80788dbd513686U, 0x3d7611193d1fdf77U, 0xbe0e31c9bcc6f899U, 0xbd9825d73d8497f5U,
  0xbd3778cfbd3d1577U, 0x3d36583f3d1ad3b4U, 0x3d7ea7c33ea11374U, 0xbc2c71903d852124U,
  0x3b64376dbe740ef8U, 0xbbb7c44fbd15fd57U, 0xbde244033e4d8765U, 0xbd19d80c3c21ef71U,
  0x3d1d26ffbeaf2531U, 0x3e1a989d3e22c56bU, 0x3d5c44bebda0b8d6U, 0x3d62e7013e73c089U,
  0x3e905420bca40181U, 0xbe47beabbd8424caU, 0xbe6a9b823e374376U, 0xbdfe24b63cdcc08cU,
  0x3da111803c18e5ffU, 0x3dc6507abc4dce18U, 0x3e3fc694bc85591dU, 0xbe1ddc423c9dfd99U,
  0xbe1e6f043d99f308U, 0xbdb389f0be0ee782U, 0x3d8d0f733e2c925bU, 0x3a99da6bbe277bbdU,
  0xbddd93c6bde8baccU, 0x3d5b78c03ab66b29U, 0x3d901a1e3e7ae1e2U, 0x3d9936dd3e1b56e6U,
  0xbdc2ba9abe2e6327U, 0xbdb152743c1c23c6U, 0x3cd223c73d4a3ef2U, 0x3d2030663d4ef49eU,
  0x3e04043bbc661e22U, 0x3d76282b3d36ece0U, 0x3d0c82e23e0c153eU, 0xbd10d25d3dfa7523U,
  0xbddcc02bbde333c9U, 0xbde22fd4bef0f3aeU, 0xbcf8f5fdbd43d63bU, 0xbd14fe4d3d350e86U,
  0x3db19a71be8418ccU, 0x3d1b08633de2a483U, 0xbda57a8fbdbb3534U, 0x3ebaf5623e9c7231U,
  0x3e0a44063d18643aU, 0x3cbeb740bc3b91dfU, 0x3d4eeb123e34cd80U, 0x3bccc103bd703aedU,
  0xbe0bf5fcbd31381cU, 0xbe60062abd8c66adU, 0xbc2246363dd28301U, 0xbcbb620ebddcdd58U,
  0x3e88df7d3ca68d02U, 0xbbdf67253e8a0303U, 0xbd263d5b3d60c66fU, 0xbdaa261a3d63620bU,
  0xbe3469633d30679aU, 0xbd2be018bc83e250U, 0x3e2d0b0dbc97d559U, 0xbe4554c83d75d829U,
  0x3ea5120f3d863a81U, 0x3ca260fcbd28804eU, 0xbde08fe73e22e91dU, 0xbe46fe3fbdc5e068U,
  0x3da7be213e428736U, 0xbda1898d3d7c2454U, 0xbd469713be15832aU, 0xbddb47fdbddc9cb9U,
  0x3d6de7fcbddd5718U, 0xbd6542bdbeeb2ff6U, 0xbd9bd6f83d703df7U, 0xbdc9335dbd36e991U,
  0xbc4e2ca2bd9a8a4eU, 0xbdfde6d6bf1fbc60U, 0x3d32659d3d67baaaU, 0xbd7e0585bd3a7aa7U,
  0xbc0241e9bd3d77beU, 0x3c2164f93d423862U, 0xbeb852fe3b705300U, 0x3d1b977b3dbd0ee7U,
  0x3e1af8633e256a3eU, 0x3db926d53d3cc003U, 0xbe4055ee3e0f3b2cU, 0xbe4ba5433e1e687fU,
  0xbe03be783e63f8ceU, 0x3de70642bcd27a90U, 0x3d7d1dafbe941302U, 0x3c397a933e56e9fcU,
  0x3ddd0e273e46f39bU, 0xbc78d3483d3c2d6bU, 0xbd965c863e726b83U, 0xbe4b212d3d3511d9U,
  0xbce5154c3eaa27bdU, 0xbd662d64bd3cd7d7U, 0x3d21bd813dd4b1f7U, 0xbb86ed4bbee13b4eU,
  0x3da4140fbdb933f0U, 0x3c5b4e3b3d838165U, 0xbc80c9fc3c20bc71U, 0xbe83f34b3e583bdfU,
  0x3e0c47193da53fc1U, 0xbdf1017fbee5bc93U, 0xbd463d8fbcf599f6U, 0xbccd42a1bda208e9U,
  0x3dc9e7a03e622b19U, 0xbe07385abdb06586U, 0x3e43034c3c7f45a2U, 0xbe0d9b3c3c83e885U,
  0xbed44c66bdcd2d03U, 0x3d2b3beebd7690c7U, 0xbb7efa41be39f36bU, 0xbd4d0d13bcd933d2U,
  0x3e28b71fbc049ae9U, 0x3d64af733cc99fcbU, 0x3dcb4e65bdca0569U, 0x3e71c5683c7340feU,
  0xbec58937bd64f490U, 0x3c6b2527be200c36U, 0xbd13fb3bbe0ee16fU, 0x3c8e83d7bdb8cb1eU,
  0x3de24eedbe94beebU, 0xbc986f22bd9dc58dU, 0xbda7f6f53d12d730U, 0xbe8cb79cbd2b8b82U,
  0x3f030ba8bdbf6b76U, 0x3da822b03dcec942U, 0xbdaa1c9dbcb22ee2U, 0xbd841e76bc410ad7U,
  0xbc4967083dc969eaU, 0xbe31b9a6bd8e944bU, 0x3e08b8e3bda56571U, 0x3d5241dcbe81d02dU,
  0x3e406607bcfb73b8U, 0x3d0a2a9fbb138a86U, 0xbe238e9d3cf4573dU, 0xbe3682b8bdd30f9cU,
  0xbe059c16bdd53080U, 0x3d07fb9c3bebfe0dU, 0x3e5bd1363c48de23U, 0xbd5441cfbe580b06U,
  0x3e757dbdbd241a2bU, 0xbd594335bd1dce70U, 0xbe3392173d202e23U, 0xbe047a90bcc2a370U,
  0xbd9aabd03e15f751U, 0x3ce228bd3cac7be2U, 0x3f0cbc78bdc39417U, 0x3d19b83f3e2f9980U,
  0x3e33a2493d829bb3U, 0xbcefb9debc8bf6cbU, 0xbdf4a5aabd0eb880U, 0xbd173abb3c102f6aU,
  0xbde3c9bb3d93e93eU, 0x3dca2e2d3defb08aU, 0xbd2758853c2f3c26U, 0x3d5733063d638c68U,
  0x3dcf4c483d836ea3U, 0x3dbad04abd98f5c4U, 0x3f26ba99bd95ee19U, 0x3e0a2566bcb99c4fU,
  0x3d195a45be3848daU, 0x3d746a813c9b6cccU, 0xbcf33b293c5a8707U, 0x3d0c14783d61c3bcU,
  0x3dd7d35c3d1ae9ceU, 0x3f05806bbce7f15aU, 0xbdd0108ebdacde10U, 0xbc942f1e3d0b0f55U,
  0xbd6f1d763d08fceaU, 0x3ec70b4d3eb7743bU, 0xbd816d883d912d62U, 0x3d55013fbd01b456U,
  0x3e4dfd00bd19c400U, 0x3e0edbf1be4d7444U, 0x3e90ba21bd4fca52U, 0x3ecea5883d4b2abeU,
  0x3e3cea11bd05d800U, 0xbd33a8fabc382d11U, 0xbc9eb7ffbde1f0f0U, 0x3dc5d865bdd6acfdU,
  0x3e85e9313e459c9dU, 0xbdd45ee8bc8faa48U, 0xbdaaac8a3ca16eddU, 0xbd27ce55bd835c3eU,
  0x3d399cacbdba6ed7U, 0xbdca4885bd5e4ff1U, 0x3c4e95043e970abbU, 0x3e777b4d3e219e1eU,
  0x3e001b733c8a8431U, 0xbe6b117ebd7ef1d5U, 0x3cf774efbc939bbaU, 0x3d34a6b13d5c622bU,
  0xbc46bee7bdf835c0U, 0xbda4ff47bdbea895U, 0xbe31a6eebec1e59eU, 0x3e84bb6dbe12c924U,
  0xbc0b4413bec8015cU, 0x3cd01a473d5bba4cU, 0x3d74a9b4be29dd35U, 0xbd8af07b3dc07078U,
  0xbd10c878bec4774eU, 0x3d0590283d337e2dU, 0x3c7ccc2c3d22abefU, 0x3e3559043c6b3496U,
  0x3e7199dc3e0f3e9fU, 0x3d20faf73d986c5cU, 0x3c18bffdbcbaa736U, 0xbcb98200bd87da40U,
  0xbd6dfd743da1b918U, 0x3e880c0ebe73f0b7U, 0x3d7cec46bd465875U, 0x3d6cacf4bc9b6d10U,
  0x3c74748e3df23fbbU, 0xbe8449dabd19c9c8U, 0xbcde435c3b6fedd9U, 0x3ea47465bd094196U,
  0x3d27caf3bcf12368U, 0xbd67bce3bd2b75a6U, 0x3c94ced53d7f9b65U, 0xbccfc614bd6c98caU,
  0xbd4b593fbe046fdeU, 0x3d1621753c8bb97fU, 0xbd0546603e851823U, 0x3b4e2b0dbf30168cU,
  0x3e520505bd5341baU, 0x3c7b8ea53ca1e396U, 0xbe9b846dbe463d55U, 0x3e281c643e51bb5eU,
  0xbe88b7f63dcd0327U, 0x3d93b1dc3dcaaf06U, 0x3e0121c3bbc95e14U, 0x3e263f5d3d0eb7ddU,
  0x3d3dbb65bdafea1bU, 0x3da633f83d57d529U, 0x3da6d9debeb29ccfU, 0x3e8c66703d33ba4dU,
  0x3c65f0a2bd5cccdcU, 0xbbd52632bdd545a5U, 0xbc92b9ddbd3fffb7U, 0x3c3a94803dd06381U,
  0x3cb98d3c3d6bd718U, 0x3dca470fbf132d75U, 0x3c8f6e52bb5b5657U, 0xbd8064cdbc3bc1abU,
  0xbd3e6671bd599fe7U, 0xbd1938e53dbbd0c2U, 0x3d7f1254bb31ac42U, 0xbeb2793dbcda6da5U,
  0xbc95c3b03afc5a94U, 0x3eb50ea1bea04725U, 0x3d6f5e19bd2d5863U, 0x3dc1ef243d8417eeU,
  0x3db13efa3d23ceb3U, 0x3ccfc431bd8e7e13U, 0x3e46fcddbd08dc0cU, 0xbda99a603aad6421U,
  0xbd68e0f9be90b54dU, 0x3d89132d3cded913U, 0xbca58e33bc091c1bU, 0x3d374fe13cad4cfaU,
  0x3ec891783e0f2c40U, 0xbd9119b3bc5807baU, 0x3dacc30c3e7ada34U, 0xbd4d4516bc84f4a3U,
  0x3dab5cdfbd90e02bU, 0x3e0736713d853498U, 0x3e34d252bc8aaf8eU, 0xbe6018613d4a0391U,
  0xbe85c1a03df20423U, 0x3dbf67633afe9e19U, 0xbcf2cf2ebde17184U, 0xbc00a560be2dde44U,
  0xbe650c133e68b6beU, 0x3dc20c903e13e342U, 0xbe3ad384ba7fe142U, 0xbd90db4e3b5449c2U,
  0xbe7ca621bdcb7d89U, 0xbe0b3ca53e4b2a14U, 0x3d831f893d282772U, 0x3e2078613df2acfeU,
  0x3ddcb3b2be0fb5c7U, 0xbd5b1c8abc5c86faU, 0x3df8bc903d09b06eU, 0x3ea8240abdaa7e2dU,
  0x3d6fa929bd95e7caU, 0xbb4defb73ced9e72U, 0x3c1bc27b3e568207U, 0x3aeea7753cca3cdcU,
  0xbe17b9813bdcc2cbU, 0xbdad3d34bbc4879fU, 0x3f1288aa3b15910cU, 0xbccd97193df97001U,
  0xbeb72b52bd7acbb5U, 0xbdd0e20a3c0354efU, 0xbda3d23dbd4a6a27U, 0xbd94514c3d5bf83fU,
  0x3ccebe29bda06853U, 0xbdcfb080bda7fa38U, 0xbd8e3537bc936e69U, 0x3e44f7bebdbc52a5U,
  0x3e3925613bc9a6caU, 0xbc6ee743bb626f1eU, 0x3c29eb6cbe7b603fU, 0xbcc5cd903e6d1abdU,
  0xbe445f2f3bd86eadU, 0x3ccb63433d997af4U, 0x3ee7cc45bd8727b5U, 0x3d3653b33d965ad7U,
  0xbd8b41f93d95e558U, 0x3dfca519bdbd0919U, 0x3d0648b2bda46237U, 0x3d11cad8bd537099U,
  0x3d8f4087be6fb8abU, 0xbe9424b1be470d51U, 0x3dc0fcbf3d8de262U, 0xbe24ffc23dd2863dU,
  0x3da9612bbd6f9565U, 0xbec5d20c3d7f38ecU, 0xbd92c8233dfc8082U, 0xbdf4fc123df434daU,
  0xbeb9aeabbcdfef22U, 0xbdb137883d9420a1U, 0xbdbf9b033d80de46U, 0xbe079ce63d8d5b71U,
  0xbd83084fbc1a98e5U, 0x3deb8feebe5caa12U, 0xbd328c6dbd214af0U, 0x3d42e162bd0a4997U,
  0x3d254fd33d8cf5bdU, 0x3c8f7f39bc850415U, 0xbe3837c0be5a85edU, 0x3e7b3a55bba635b6U,
  0xbde8cf2cbe8cc012U, 0xbd3f6c583d0f419cU, 0x3ce6f9063e626e3bU, 0x3c94a7cbbdcd98a6U,
  0xbe1e5cee3df91b6fU, 0x3cc08f3f3c971c6aU, 0xbdbb16cfbc4392dcU, 0x3d3af3ef3d7d326cU,
  0x3d96f890bd8eb962U, 0x3cbf2267bf067792U, 0xbdf7fff3bc6d140fU, 0xbd7fa6fbbd0aa315U,
  0x3f0364093c7a5adfU, 0xbd4e5b713b7d4591U, 0xbec7cbbe3d560a0dU, 0x3d16ca1a3dbc87deU,
  0xbdd4d0f03d21dd3bU, 0xbd9a51b53cd2f8f2U, 0xbd11e2943d1c3893U, 0xbd14a4e0bdab17ebU,
  0x3dcff5033e237c6cU, 0x3df6a0febc8d54f5U, 0xbe2ef3dabb718b19U, 0xbd77b03cbdb3205cU,
  0xbe353d483e7f0dcdU, 0xbd1ceb323e941d64U, 0xbd8e9bbb3d9dfac0U, 0xbd0a19eabdec07f8U,
  0x3e6d9dd7beb4377dU, 0x3d88b1273db70896U, 0x3e968f853db40697U, 0x3e39d2593e1a8b1cU,
  0x3ce3d118bcabc33eU, 0xbd3b3f30be12def6U, 0xbdc67ca5bcf12fd7U, 0xbcd132c9bcfd7829U,
  0xbe2fbe063d28d28aU, 0xbd50eb3a3b0c7244U, 0x3e00d75d3d94d2d3U, 0x3e31fb25bd77ca11U,
  0xbd25c722bdc6a0e5U, 0xbce6e2873c341e44U, 0xbbfc5d313e85d675U, 0x3a6dd921bd127ce1U,
  0xbe113095be116f8cU, 0x3e48f9b33e19a569U, 0x3d8e147ebd8503f7U, 0x3d047a5f3d31253aU,
  0xbd385e38be15b890U, 0xbead99973ccfb7e0U, 0xbde294e3bca877b1U, 0xbe3a0cf53e0fcfbeU,
  0xbd8a4792bc89fcc9U, 0x3d89667d3b6dd4b1U, 0xbb8077573e4b1d83U, 0x3e9589203dd920fcU,
  0xbe820c4cbd9640cdU, 0x3d9568b2be8628e0U, 0xbd7252dbbd551174U, 0xbd4f913fbde161b9U,
  0xbe6eb6843d55c15eU, 0xbdb92266bd686b59U, 0xbd1f9b2cbda524f9U, 0x3df8aced3ecfc809U,
  0x3e1e6b54bdb3c3dcU, 0x3e379acd3da65473U, 0x3d134e94bd5286b7U, 0xbad4e3043d82aaedU,
  0xbbf28f4b3db326a6U, 0xbcf406bc3c41dfa3U, 0x3d983f1dbdb15ae7U, 0xbb9e23493d92bf47U,
  0xbd233cb5bde4c890U, 0x3bf1db343d73b4c7U, 0x3cd9ac24be10f30bU, 0xbd3ed1a03c5fd504U,
  0xbd9517efbd930d2bU, 0xbce7218dbb34c250U, 0xbdc1c4afbd6d7868U, 0xbcfe942d3dbe1960U,
  0xbd7d1601bca11bf4U, 0x3cf79ebd3b11547cU, 0xbca0d39ebd96e5c7U, 0xbc142e4ebcd3eae2U,
  0xbc1e9254bdb80bbcU, 0x3b51bf04bcc10d5bU, 0xbd6fe9023e41935eU, 0xbe49dedf3e3aebffU,
  0xbd0494b53cd874bdU, 0xbcfb7cc3bd12915dU, 0xbc11d3e2bd8ce067U, 0x3d96bc8e3d2d3a61U,
  0x3cf2aed3bc1b24e8U, 0x3df7ea91bd9d28c1U, 0x3c8ad8113cd3c0b1U, 0x3d1bb8de3cd572e1U,
  0x3db78fd3bce865dfU, 0xbe1917bdbbb6756bU, 0x3b6f7b733cc4a8fbU, 0xbd821734be1043c1U,
  0xbfaff67fbf1626f4U, 0x3f23a3e0bd9a02b6U, 0x3f9d9ae3bf3c7ea1U, 0xbfc97bcebeff1e7fU,
  0x3ca801cb3f3067f2U, 0x3e5627d3bec58415U, 0x3fcec3c9beca4e53U, 0x3e6125d63e0dd4f9U,
  0x3e5c368a3ebe0657U, 0xbf97e4b23ea6c300U, 0x3ed94d7a3f18b4f2U, 0x3ffe67f1c00780f4U,
  0x3e876a99beb36d37U, 0x3baba2c93de141a3U, 0x3d318445beb387b6U, 0x3ea7ba06bfc36765U,
  0xbf16afde3f2add8cU, 0xbd2e09a4be9bc5d5U, 0xbf9b2d8ebed8c729U, 0xbd736e02bedb9727U,
  0x3dd22e413f2bc6c4U, 0x3e486bf83e0b64d6U, 0xbe05ba0c3ce67d0bU, 0x3e2e606b3fb8613dU,
  0xbfef1d23be0d5b6cU, 0xbd930accbd776ea7U, 0x3db07b4fbec21578U, 0xbf8006bcbd9af4b6U,
  0x3f894c593ecfdd34U, 0x3fa51cd4c0160e77U, 0xbe93726b3de9ebaaU, 0xbd88d9763e67f1a4U,
  0xbda48a4fbe84f447U, 0x3ff837083e4c7e85U, 0xbd433fed3dbff3efU, 0x3e6a544ebf122e6bU,
  0x3f03f7233e4cff87U, 0xbea4f118bcac4164U, 0x3e8e79873f4a3226U, 0x3d9f2d853e5e2ce2U,
  0x3f068d803f0b1c42U, 0x3bfce3803edb0ac6U, 0xbf0454703eb5a2deU, 0x3e936043bf902d42U,
  0xbea919e5bf6d4700U, 0x3f59d255bf757454U, 0xbf8693a93f32d1f9U, 0x3f92fb803f17d2e6U,
  0xbeba325fbed7c1b8U, 0x3f2b66213ead335fU, 0xbd7e23513f1b7319U, 0xbff95f97bf93c6e1U,
  0x3f0a18783cdf1bf0U, 0xbb2504fd3f774fb6U, 0xbef27612bebed78bU, 0xbf2652e03e643e67U,
  0x3e933d34beb06141U, 0x3f64fbecbe623925U, 0xbf2deb613f43b4dfU, 0x3e5606c43f58d177U,
  0x3df13c8c3db8d195U, 0x3f9324773f200353U, 0xbf61f21dc00d2ed8U, 0xbfa98858bdddfcfeU,
  0x3ef08a37beea5e1dU, 0xbf9c5c023fc14536U, 0x3ee4524b3d7a59eeU, 0xba95d03e3f028b85U,
  0x3d9172f53e69f77aU, 0xbf208bc3bdccbe9aU, 0x3db28cf2beff57fcU, 0xbc91b717bf381edcU,
  0xc005daf9be83a4d2U, 0xbf2bb31e3f86b46cU, 0x3c3a1f38400e9ff5U, 0xbe6f8e9fbb6e77b1U,
  0x3f131fefbd1e2bc3U, 0x3f0b26d0bd8e92c4U, 0x3f980f263f07217cU, 0xbf8e7ed6bdc88debU,
  0xbe76d15ebfcc2d90U, 0x3ccd8dbe3e8ff356U, 0x3f08b4e03ef587a5U, 0x3ea7246e3e919aa7U,
  0x3f7306e0bd91a1daU, 0xbcaaa63fbe6da5f0U, 0xbe2c5ef63f50a3bbU, 0xbff3ae75be8bacadU,
  0x3ca49e913e27313bU, 0x3e44fcc9be86d1c4U, 0x3f85ffbc3f5ea5f5U, 0xbe792b96be8ffcabU,
  0xbe4109753f634098U, 0xbf8525643bbf3a16U, 0x3e1f39b3bfb14fb1U, 0x3fad2ab33ea4ede2U,
  0x3f3edd31bb4c7e5aU, 0xbd5f1e733eb8d228U, 0xbee07af8bf0395f7U, 0xbf3d5e87bdd9f7ecU,
  0xbd7ad7113d860d57U, 0xbe815e48bf7681b7U, 0xbd3c22563d4e4fe5U, 0xbddb89a7bdf45bcbU,
  0x3dea3f6d3f2477f6U, 0x3fea927fbd085d87U, 0x3e55c56bbb91cb04U, 0xbe7edbe83da8917fU,
  0xbe08293ebe4f318bU, 0x3d32d556bcb9f8dcU, 0x3f2f6da6bf989bd8U, 0xbf6b21603e49d0faU,
  0xbdf20b79be8de2e5U, 0xbded1d163f2c1be4U, 0x3f9a60b63e04514dU, 0x3ee909dcbd855104U,
  0x3d21239abe0b5fffU, 0x3e4e54b33e6b7347U, 0x3f119d1c3e9cc2d3U, 0x3e81188a3f9a22c0U,
  0xbfbe339ebf264491U, 0x3e74b755be61d658U, 0xbf74e694be1b43e5U, 0xbe6b89963edb2eb7U,
  0x3e7fc0eebfe05484U, 0x3eb8ba0c3df3fc6eU, 0x3ec53b23bda0b19fU, 0xbdcaccfb3eb8cc56U,
  0x3f54dc013f0ffe8aU, 0xbf90b3d1bf8d768fU, 0xbe04cb783e5c14bcU, 0xbdc71592be28f591U,
  0x3feb4ca33e1f7d6bU, 0xbe35b46abe5bf497U, 0xbea0074f3f1ad356U, 0xbf4bf86cbf0a2f35U,
  0x3e81f6713ff21c67U, 0xbf2821bbbf9f7349U, 0x3e0b930a3e42d994U, 0xbd4fbe1dbea59793U,
  0xbe0f4804beb7fcf4U, 0x3f000332bf009339U, 0xbf1cbd953d3be180U, 0x4019c0b33eb38d89U,
  0xbe9fa2713e1e606aU, 0x3e0be62ebf8e74dbU, 0xbeac39f2be36954fU, 0xbe019a02be7f89adU,
  0xbe850edd3f1db362U, 0xbdd4b55cbefe1d29U, 0xbf2c18ef3de9db8fU, 0xbebfd736bf31187aU,
  0xbf30e8d93f018a7aU, 0xbf806434bdb00712U, 0x3f62879b3ce51249U, 0xbda3c16abfe8a9b9U,
  0xbe84d0883e8e3bc1U, 0xbe17aaf23e548058U, 0xbe0e88163f32cd01U, 0xbf56c567be87c47eU,
  0xbd8369e0be4a788eU, 0xbdfb167cbf28e870U, 0xbfab38634002749dU, 0x3f8b98a0bf0988c2U,
  0x3ef781bebf9e5dbcU, 0xbe9b42d5be6daffaU, 0x3c23893f3dcd99bcU, 0xbd3e79b93fc02410U,
  0xbf84f78fbf75673eU, 0xbd9df5efbe95b8aeU, 0xbe86c8da3d2e3061U, 0xbeddd9e93e6d7db7U,
  0xbe35a9b03e508d5cU, 0x3f00cd133edf9000U, 0x3f8b3bd23dddf411U, 0xbee7b0bbbe5c7a69U,
  0xbeed16ebbfce540cU, 0xbe709690be11bed4U, 0x3eac1e8cbd315694U, 0x3dc9873d3f66e9f9U,
  0xbf1a92df3c8e0f51U, 0xbc98e0cfbef1ad50U, 0x3eed2699bf8b87e8U, 0xbeec2209be49fe80U,
  0x3e0821a73d886d26U, 0x3de85d4e3efc9542U, 0x3f98962d3e0582b8U, 0x3d5cd76c3e9c4fdfU,
  0x3def06923ef5815bU, 0xbde5f41c3dcbf22fU, 0xbf23a0a23e5e2ad2U, 0x3ef7288ebf2160ceU,
  0xbf63a8d9be802ef6U, 0x3d9096eabe474215U, 0x3e1875c33ebd6e53U, 0x3fbed6e03dd7b103U,
  0xbe163038bf4ec723U, 0x3e23d916c01428edU, 0x3e9ac2643d5797c1U, 0x3ecd5466bb029fc0U,
  0x3ef159b63f87c936U, 0x3e9f03663e16015cU, 0xbeb5fe5a3d871362U, 0x3dfb63193f7ea001U,
  0xbf8736e6bdf33bbcU, 0x3d97a0ffbf1dcc42U, 0xbe13f5f4bf4cc1e3U, 0x3f549e733f9481f7U,
  0xbd16ca9b3dcdd700U, 0xbf1d04fbbdc7dd1dU, 0xbe01c3713e285d5eU, 0x3eb86f42bbef6331U,
  0x3f4e7a003f539fd0U, 0xc0259df9be9af58aU, 0x3db05accbee484c1U, 0x3d1af2593f1de46aU,
  0x3eee9ad93e0a61f9U, 0xbe7f1785bebe3007U, 0xbf5ec752bdb274e5U, 0x3e6d23a5bd493bcdU,
  0x3e840560bf0f3ee8U, 0x3e4e350dbfaf9071U, 0xbfb762c23fb719ceU, 0x3e8302fbbea7fe7aU,
  0xbf5c7db23f0b2c65U, 0xbf7846cbbe1a87bdU, 0xbe128af3bb995bdfU, 0xbda3acf9bf2405cdU,
  0x3dc2e70a3dd6adffU, 0xbe14bc143d01d90bU, 0x3f21d80ebf2ff51fU, 0xbfc91dec3e04d058U,
  0xbe38aecf3ff1344fU, 0x3e97948cbea16c97U, 0x3efba01dbe2437f7U, 0x3f2be6763e8e4e0cU,
  0xbfa26c02bea484beU, 0xbf0201153e0b9175U, 0x3d56506abf4ceee9U, 0xbd9868ac3f8738eeU,
  0x3f61cf8cbf1965c3U, 0xbe8e5c8d3ed5e40dU, 0xbce438213e32c9ffU, 0xbfd8b14e3f273aaeU,
  0xbe378a553dc594d2U, 0x3d1e1bd4bf41b153U, 0x3d8255d7be769997U, 0x3e9525723e7cbcb5U,
  0xbf374b063eb42366U, 0x400fd636bf08efafU, 0xbe8546073db5486cU, 0x3ebe5703bee4f211U,
  0xbf1a5ac03e21e6c3U, 0x3e2b41e3bfaad567U, 0xbe24d1323e63eeccU, 0x3efd71653f09da48U,
  0xbf2642fb3eca0a01U, 0x3df64f92bf86a20dU, 0xbe20255abebd1f41U, 0x3d9de778bdf3e6a6U,
  0xbd9634b03e41dae7U, 0x3fb2678d3f1b2787U, 0x3dc08179be9a6e3aU, 0xbe332184bef5de82U,
  0xbbb5e84e3cb6991eU, 0xbdfa1046bdf59f75U, 0x3eb024f3be2344cbU, 0x3eb00c2fbfe22eadU,
  0xbf03fb653f1ace27U, 0x3e87ee3a3da58a55U, 0x3fc6cbed3c3c313eU, 0xbdc3d1493ebb1a97U,
  0x3f83b1ddc0417c15U, 0x3e2c321e3e534ae7U, 0xbf2204bdbdecb5c8U, 0x3edf90943ddf11ccU,
  0x3fed64703f097728U, 0x3f38e1e53e4e2bbcU, 0xbe9429abbf6001b8U, 0xbf217edb3eaef20bU,
  0x3e684936bd70b253U, 0x3e44c5f1c02034eeU, 0x3f9f13733ea0575cU, 0xbea8c71f3d91d659U,
  0x3e8e79a4bf17c28dU, 0x401083cb3ec37fb9U, 0x3f2e8fa5bf0ce43fU, 0x3d98d7a9be0462f4U,
  0x3fdf1709befb90fdU, 0x3f1691ba3c58a236U, 0xbf08c4693e7faf36U, 0x3f2aa57b3e0e1cadU,
  0x3e02449d3e9a98c4U, 0xbe4816813db31596U, 0xbe2b180a3e5471d4U, 0x3f1b14113d0169e6U,
  0xbb408a623bc8a484U, 0x3f4938b63df68d6cU, 0xbe3b56bfbd274622U, 0x3f5bd43abefe9669U,
  0xbccbf4ac3e053d50U, 0xbf02ed7a3d7e3badU, 0x3e39a8e63e4bdccfU, 0xbd7b5bbe3ce345e6U,
  0x3f5adc523f82eb1bU, 0x3f781c843e7bc2acU, 0x3ecb153a3b57e660U, 0x3cb151ac3f192084U,
  0x3f0a66ea3e0b1e08U, 0x3afde4e03d6c6b40U, 0x3e8079c43f49aa3aU, 0xbdd7cc0dbed2a855U,
  0x3ee390b8bdb86206U, 0xbc6458583cb3ebe0U, 0x3eb28d4c3f0641cbU, 0x3cdc4fb6bf538711U,
  0x3ea724883e2b8cfcU, 0x3e848cb53ea89794U, 0x3ec16197bc65135bU, 0xbf29f487bdbb165cU,
  0xbe409a673da0765bU, 0xbbcec84f3db21740U, 0x3db41b9abe16b17dU, 0x3e2f96cb3db058bcU,
  0x3db6ce2abdbf61baU, 0x3e0633f2bd4613ceU, 0xbe0d98c63d5961b7U, 0xbde868493da07a55U,
  0x3da4e5d8bbf839ddU, 0xbe64e907bd306b48U, 0xbd0167de3d909d2aU, 0x3c3a29ba3d0d6b98U,
  0xbd6d62273e2e3656U, 0xbdbdc8cdbcc546c8U, 0xbbbb86813d1da329U, 0xbd105238bac826ffU,
  0x3c90c4053d613876U, 0x3de5875fbd527898U, 0xbdefa6593cb3b728U, 0x3a8681693dc4f99fU,
  0xbe570e8c3d8f7991U, 0xbd9ee8b1be079cb1U, 0xbcbe002c3d97adcfU, 0xbc04cbedbc4a98b5U,
  0xbd416ebbbe30f0f3U, 0x3b944d51bd2cf3cdU, 0xbdd1bb27bba0f6d9U, 0xbdd3d5833da6b6dbU,
  0xbd95866ebc484710U, 0xbd9003483d616ed9U, 0xbd6a37b3bb3feb98U, 0xbce7db81bc6f43baU,
  0xbdfd77e43d899a0aU, 0xbd2489433c92beceU, 0xbba152e03cd6df1aU, 0xbdc4510bbc8a36ddU,
  0xbd171a773e873ac0U, 0xbdd8ceff3cc98141U, 0x3d8a8f6a3d5b5257U, 0x3e006cb13d9682bdU,
  0x3c440282bd2505f9U, 0x3df2702d3d8bc22eU, 0xbdc266f73d734dadU, 0x3dc59d10bc9383d8U,
  0xbe1395aebe1624b7U, 0x3d7f1ef73d5facfdU, 0x3d8a31253e0c017fU, 0x3c89f86d3ba6b3ccU,
  0x3e2692fdbd49f4b5U, 0xbd18911cbd65ee07U, 0x3d4e71ff3d06cd79U, 0xbc745c843d11117aU,
  0xbe468392bc6ea53cU, 0x3e2dffef3d1df3c4U, 0x3e3a69ebbd41237cU, 0xbd4ff7843dabea8eU,
  0x3bb612253deabd4dU, 0x3be48b7d3de1f666U, 0xbc2fadfbbd448e89U, 0xbcb75039be16ddcbU,
  0x3bfd1597bb3adae9U, 0x3da8d4d33d8fc002U, 0x3cd8b43b3d3c70a5U, 0x3cde781b3d8233b9U,
  0xbdbe58bc3dfb9d45U, 0x3df8a4683d3f8d0fU, 0xbd8664a73e23d5d7U, 0x3d005763bc921f69U,
  0xb9ef20913d221ff4U, 0x3e859f683e057f23U, 0xbce923acbd94cba4U, 0xbd814d51bda4f324U,
  0x3db158ebbd0e0265U, 0xbca3d1c6bda5d23fU, 0x3d3223e03da8d6e7U, 0xbb13fe06bb09604dU,
  0xbdf158413dfa2b19U, 0x3e3bf334bb4eb623U, 0x3e9663743dca975eU, 0xbd226b2dbcffeac7U,
  0xbd10cfe9bdce8140U, 0xbc803a283df73977U, 0x3d8a520e3db7f6faU, 0xbd4ca9c8bbe8b253U,
  0x3e3556eb3ce1aa74U, 0xbdd9edd43cfed869U, 0xbd3d4d56be1bac88U, 0x3d9c67623d39738dU,
  0x3d236a633d99e7b7U, 0xbc6f86df3e6bd1b2U, 0x3dc387ed3c34f182U, 0x3caab69e3e0130f1U,
  0xbe47677dbd90eff0U, 0x3d37b171be1f3d4dU, 0x3d77c443bddb0be1U, 0x3d0236ab3e069eeeU,
  0x3e2c07773ccaaa8eU, 0x3e1b6f653dd33394U, 0xbc0a9554bd857ba5U, 0x3d87707d3e1ec7e6U,
  0x3da39d68bda35da4U, 0x3ce83188bd3b6235U, 0x3d31e53b3d22b2edU, 0xbdf642bd3b1fb4ccU,
  0x3cc2e3223cbea7eaU, 0x3d4d3e01bd6b92adU, 0x3da47eb6be1aa8c8U, 0xbc8b89883d90ce29U,
  0xbdc4408d3d14bb15U, 0xbd898cbb3e088908U, 0xbe45601c3cff4956U, 0xbce93897bdcc28ccU,
  0x3cf55a92bcd28b78U, 0x3d980f12bcbadae2U, 0x3dcf25babd32ca94U, 0xbda7ee3ebe010822U,
  0xbdb83292bde50198U, 0x3e0e06d83c246d9eU, 0xbd9aa11cbd02e72fU, 0x3d2365353d854420U,
  0xbb4b3af2bdb2aefeU, 0x3cfe74e33daa4c83U, 0x3e08acb13d0087aeU, 0xbe061f4dbde31ef5U,
  0xbd8e738bbd3041a2U, 0xbbecf2f0bd5b7161U, 0x3da32e3ebcf8ae89U, 0x3df8dd2b3d5ca96bU,
  0x3e8cdf973d7ca18dU, 0x3dd0848f3d3df348U, 0xbe443bd73d8c8e23U, 0xbe0656f53d4609a6U,
  0x3d7b23813dee1a18U, 0xbca92419bab2b50bU, 0x3c240b40bd2f2b34U, 0x3e4b7c22bc880712U,
  0x3dc8fc48bc3ef68fU, 0x3d11476a3df7973eU, 0x3d842aadbe1569aaU, 0x3dd4889dbd5c0fe7U,
  0xbdc60151be245afaU, 0x3ca800c5be85692eU, 0x3db891a5bd1b52a0U, 0x3e5306b83cc86b79U,
  0xbc94ef303d542285U, 0xbd2c5ae53dfa03bbU, 0x3e18203b3d1ecd3aU, 0xbda1266ebe02a15fU,
  0x3e41b0f53b44f33dU, 0x3d4791a5bcd9202dU, 0xbe2436a4bd95f8f7U, 0xbd535f573d3e8cf3U,
  0x3d8c6552bdb1a402U, 0x3dc820263e03a354U, 0x3d7f1b18bdd900a9U, 0x3d45a6a03c446ccaU,
  0x3e063620bd5f7976U, 0x3db9d02fbced1fbdU, 0x3c0bb8bdbcdfff0bU, 0xbc2c1d313d945025U,
  0x3d947a083dc092bfU, 0xbdaab90dbd8faf46U, 0x3e0acf94bcdd7775U, 0x3d2d4b44bdb38f0eU,
  0x3dc770ffbdd3917fU, 0xbc68e1ac3d6ac03cU, 0x3ca19fb6bd588458U, 0x3d8aed0abc11754eU,
  0xbd3b2b96bd9b65f4U, 0xbd9b5fcd3e5ce0e3U, 0x3e002a41be38c0f2U, 0xbdf717043d1aca62U,
  0x3d91cee03d5940bbU, 0x3da79d493bba3d89U, 0x3dcf83783cf188a0U, 0x3e28344bbd528fd4U,
  0x3d685832bcf59d1fU, 0x3dc599f9bd478dafU, 0xbd15fd0dbdb1b8d4U, 0x3e0c4d43bd971873U,
  0x3c78956fbd87404fU, 0x3db89a6cbdc895beU, 0x3d2b30e73d063e9cU, 0x3d8f7b6e3b21763cU,
  0xbd57a97e3e691845U, 0xbd8479543e15b0efU, 0x3ca66a31bc5fd03aU, 0x3b07f438bde21e95U,
  0x3d9987963d339d1dU, 0xbd851267bd6f83acU, 0xbdcb5da33bb73711U, 0xbd8b0630bcda8dd9U,
  0x3c8a14273dd1565dU, 0xbdd0117dbca645ebU, 0x3e86aa3dbdcefa16U, 0xbdb50415bdcb29fdU,
  0xbdd6b1edbcd7ff60U, 0x3dacab6a3d3d348aU, 0xbe08a65cbe18d0f7U, 0x3db9abfb3d857291U,
  0x3aeb0284be0bc038U, 0xbcbb8b453c9626e9U, 0xbd81d0dd3dadd32cU, 0xbe0de3263d357a46U,
  0xbdc4778b3e203f6fU, 0xbde5c51d3d61fa71U, 0x3dea58713e642608U, 0x3b824f813de15847U,
  0x3c9d14a23e5015f9U, 0x3d44349dbcb0c1c9U, 0x3d75b6d3bdaacdf2U, 0x3dd60acf3d85ef01U,
  0xbd679855be116bb9U, 0x3da3c08a3c35e773U, 0x3ded745b3c9d66a2U, 0x3e96e29f3d67b13aU,
  0x3d80ad8cbc89ac23U, 0xbd622d0a3e30e58aU, 0xbb87b4343c5df357U, 0x3e310de6bd072b7dU,
  0xbc3ba6fa3de42b50U, 0xbdc4cf083dbbb577U, 0xbd0465f43e8c92b3U, 0xbcfedea0bce93aecU,
  0xbd9154c7bd90f37bU, 0xbda6a7013de52fbdU, 0x3dd6f2343e4bd35fU, 0x3e05c753bd720849U,
  0xbdc3c71bbe33e887U, 0x3cedfc973c5bb6deU, 0xbca421873e39ef0cU, 0x3d8341ad3df52c86U,
  0xbd871325bd1b1424U, 0x3dd49746bc90abc2U, 0xbda37566bd178ac9U, 0xbd52a64fbdf0a57fU,
  0x3bd116083d8e8966U, 0x3d6669203e783c88U, 0x3e04a1a13df1ddd7U, 0x3d0e61cb3db54b1cU,
  0xbdac65733e183214U, 0x3d45242abda1b06dU, 0x3dba5fd1bd365981U, 0x3d4a6b3ebd29999aU,
  0xbde0de3dbdddf95bU, 0x3e4754c83d5cd79dU, 0x3dd1094abd80d837U, 0x3e02386f3dbb4f4cU,
  0xbd4602c2be4668bfU, 0xbd99f307bbae8a00U, 0xbc0f821e3e06e37aU, 0x3da1639fbcf7f753U,
  0xbb8649343de354bcU, 0x3d5521e03e2976ddU, 0xbbed2b493d5859aeU, 0x3d7fb9e83e02b9eaU,
  0x3e83d151bcc850e5U, 0x3db447b1bb797895U, 0xbd1c8388bd6f8f88U, 0x3d4ce203bccc271fU,
  0x3d9f7f69bd96b972U, 0xbc8ca856bd1d4ac3U, 0xbc545619bd0cbfa2U, 0x3e06cf01bd365053U,
  0xbc15bf293bd19459U, 0xbd0374293caa5903U, 0x3ae59ba83d06aa03U, 0xbca06fb83d4e4471U,
  0xbd8293203dbd4a1eU, 0x3c8c74be3d81972eU, 0xbe768297bb43f356U, 0x3d88e432bd3223f6U,
  0xbd509bfbbde82678U, 0xbc1da6babd93db97U, 0x3c9b5f73bbc559f5U, 0x3c8e623fbc59d4e7U,
  0x3ceec2553cc241e4U, 0x3c42d90dbdb430ceU, 0xbcea45f7bd743e35U, 0xbbea5dbbbdbf4e0fU,
  0xbd7527703c465697U, 0xbd9398093bf177efU, 0x3e5512963dd965c1U, 0xbcdeec2bbcd5bb2cU,
  0xbd4ae3cabbd35173U, 0x3dabd7723d996b9aU, 0x3da8cd78bd00781aU, 0xbd0d2583bbd5e0fcU,
  0x3d88310ebdaa5ab8U, 0xbce73b953dcb74c5U, 0xbe25ce2dbdb53270U, 0xbd8a71c93d262ef4U,
  0xbbbcb8a83d62e3c8U, 0xbc06a74d3c8e2f81U, 0xbccc9c1dbcfc250eU, 0x3e8a68df3cd9cd77U,
  0xbd42535dbd2a87c6U, 0xbe0aa9b63ccdd339U, 0xbd027057bac0b2d9U, 0x3ce2ed853d8f57ebU,
  0xbdb3b8b1bdd52306U, 0x3e450102bc546673U, 0xbd8146a93de0cd4fU, 0xbd1c5828bcbd04a4U,
  0xbd98bba73d790bd7U, 0x3d465d0c3c703bfbU, 0xbd3e9f643d3e1c7dU, 0xbd976c89be1a7e9bU,
  0x3d5acea93adcb7e7U, 0xbe32188b3d1ece27U, 0x3be0cd8abd4874f9U, 0x3ba46ccf3db5a029U,
  0xbc2f07923bf7d682U, 0xbdd7889abd2c3a91U, 0x3e98c378bb70da8dU, 0xbd9bb9c43e263430U,
  0x3d95b0e43bb8bc84U, 0x3e0572c7bd934c53U, 0xbe09d26d3d1e05f8U, 0xbe7c3e0b3d1f94bdU,
  0xbd87025abcd7d448U, 0x3cac5b863c891ffcU, 0xbe7ac5febd250e21U, 0x3e000d8a3d7b58a5U,
  0xbd6888eebd3ee581U, 0xbdca869d3d954ec9U, 0xbdfb1c293d04c5f3U, 0x3d24e69cbd82add6U,
  0xbc38032f3e23aa19U, 0xbdb24edc3d9104ccU, 0xbdd24474bdcabd5dU, 0x3d54267a3cf7df6eU,
  0xbe4aad993c35894eU, 0x3d383526beabf518U, 0xbdbf0a4d3df4c8f7U, 0xbd869253bdb274fcU,
  0xbd78404c3e3d4514U, 0x3dffdd073df194bdU, 0x3cc718ebbd2505c9U, 0xbe107817bdfbcb63U,
  0x3e032c893c7061ccU, 0xbdb351c63d938cb5U, 0xbe0cba23bdb7d992U, 0xbdfa2585be0b703dU,
  0x3e34769cbd9712ddU, 0x3e089e9dbe23259dU, 0x3dc7f8883d6754d8U, 0xbda304a5bbe65ff0U,
  0x3d54f9dabc24579fU, 0x3c3cc512bdc0d504U, 0xbe2e99113dc93b13U, 0xbd9647f1be35fda5U,
  0x3d1f138b3e48a001U, 0x3ca851d1bb9e9da6U, 0xbd49c83d3dbeddd6U, 0xbcaf423b3db80d48U,
  0x3ca9b823be0a0399U, 0x3c2f92503dbb6570U, 0xbe127c3e3e262c1eU, 0xbc36068cbddf0f24U,
  0x3d384d593898dd6aU, 0xbdd782bdbdb41e53U, 0xbd1746e8be39c0bdU, 0x3eab9b44bd387464U,
  0x3d1210f0bdb97c6eU, 0xbd6eba5f3c8da439U, 0xbd9e3ad0bdbbede9U, 0xbdcf36f03d25440dU,
  0x3e069cb6bd13191cU, 0x3ce677fcbde60bebU, 0xbcbb48be3d983df3U, 0xbdc593c3be220cc8U,
  0x3c8fcc283e00a468U, 0x3d419bc4be4d8c44U, 0xbd119cf2bca98203U, 0xbd2fc4fbbd5b1bd9U,
  0x3c113f2a3d387b77U, 0xbc7c398ebcf0f6f2U, 0xbe0454663db57040U, 0xbd2c864cbd2c82ddU,
  0x3d76c4e33d8eea42U, 0x3d803d53be425317U, 0x39ac8014bbc4ff39U, 0x3df0e1dbbdd30faeU,
  0x3e1ec6eebc53eed5U, 0xbc405bb2bd4f34b1U, 0x3d607b8bb625b32eU, 0xbe0629d3be2a8ac0U,
  0xbdfa29693e055618U, 0x3d78be333d9d7149U, 0x3cde67ef3ddc9dceU, 0xbdb178113da6ea10U,
  0x3e2c2d2cbca24dc7U, 0xbcc593ebbd9707e9U, 0xbc19932c3cb740aaU, 0xbc046a7cb9e6851dU,
  0x3d91a506bdfbedd1U, 0x3e0044253dfa996aU, 0x3d2ceeddbdeec63dU, 0x3cb340abbd167e47U,
  0x3d81c8d5bd71fb11U, 0x3cf1c715bd4d7f52U, 0xbd8da65ebd5e46f7U, 0xbc6aae04bdfd90bdU,
  0x3bbbb116bdfd0c2eU, 0xbd421beebd62212dU, 0x3da610dd3ddf18f9U, 0xbc950487bc7ef7d7U,
  0xbd93102bbda79f34U, 0xbe05a5463d86bfedU, 0xbe4e5adabda65df5U, 0xbd3975423afee76aU,
  0x3d10feb0be6476f7U, 0xbcb8293d3d71b240U, 0x3d8855d7bda527a9U, 0xbdd204933e22d25bU,
  0x3e0e27533e314f30U, 0xbd39a9493e38cc89U, 0xbc4c27b03d8dea34U, 0xbdfaf78b3dd7a755U,
  0xbd3412843df52cdcU, 0xbdad3c6fbcd111f0U, 0x3d461bcc3de969d1U, 0x3da6a6b23a9ab016U,
  0xbd7133f23e80842bU, 0x3d817694bda524dcU, 0x3c3a4cfebdbd13d3U, 0x3dae7d63bd403e23U,
  0x3e6d8398bd822a18U, 0x3d0beb673d071a48U, 0x3d13d9f23d4b5eb0U, 0xbd9e374b3d737300U,
  0x3dbc23d4bd7d9a41U, 0xbdd4f0543e1d409aU, 0xbd6b23683df4c871U, 0xbd8ff40abe332dd2U,
  0x3e11e7edbde82ddbU, 0xbc0575043df7373aU, 0xbdb4ef263c3a8926U, 0xbe4d48fb3da4ebbaU,
  0x3ad91dd4bbe9481dU, 0x3d9c29ffbbd74a63U, 0xbe3972c23d5fa2d7U, 0xbd7a8afcbd9c14ecU,
  0xbd04d3743d33a8d7U, 0x3d8e9eca3dfd8494U, 0x3e225172bd681f53U, 0x3e0e1e20bc57c575U,
  0x3d894816be12c1cdU, 0x3c84f89fbb11af3eU, 0x3a868025bb875c85U, 0x3d51573ebe044d9bU,
  0x3dfa8b68bc064f43U, 0xbd82d8143d4abeb9U, 0xbd8bc7f2bd6a3a91U, 0xbdad1d13bc91ad2dU,
  0xbcc98a543e56ab7eU, 0xbe0307b5398bf149U, 0x3e0c67633dbbd694U, 0x3d345bbb3c949a31U,
  0x3c000798bd9d5b6bU, 0xbe138cb23d10f00bU, 0xbd59c726bdce3969U, 0x3decbad93dd4ac2aU,
  0xbcd032093e8a3049U, 0x3cabc0d4bd551118U, 0xbdddbc2abc16e2c1U, 0x3b6edb77bd37d9a7U,
  0xbdba939bbd1ef749U, 0x3de8c8ee3e99a11aU, 0xbda3afe13c99c01fU, 0xbd77e4b4ba851b88U,
  0x3db172e8bd172d21U, 0x3c2425c1bd1565e1U, 0x3cd74b213e7c19c4U, 0xbd396d5f3dcccaeaU,
  0x3e6be5bebe07e99bU, 0xbd94acb53de95662U, 0x3e0873863e6212a7U, 0x3e2aeca7bd8fb03dU,
  0x3de0e56cbd2f2109U, 0xbcc7f84d3ca79cacU, 0xbd2b52a43e281421U, 0xbd72f4ed3da1dd87U,
  0xbd878b803e06e90cU, 0x3dae5ed0bce3c278U, 0x3d67aae93d54827fU, 0xbc1f7b66bd1b7b58U,
  0x3c55b08abda614ecU, 0xbdba6a01bbec6664U, 0xbdcc920e3cdbeae5U, 0x3ccf1b67bd868852U,
  0x3e1174b3bc459707U, 0x3d5f97eb3b097cbfU, 0xbd7c39163cb6d61bU, 0xbce963fdbd16b364U,
  0x3d4b3b623dea3651U, 0xbcfecb1dbd1d02f5U, 0x3d970311bcb2c4beU, 0x3e4691ba3b8bcaa6U,
  0x3dc75d213d869f48U, 0x3beaff483d363c1cU, 0xbd218df33d09907cU, 0xbccf067c3ca288faU,
  0xbe0417e9bdb6410cU, 0xbd0bc9dbbc7417c4U, 0x3d5686cebd45c37eU, 0x3c9bb3ab3e85a21eU,
  0x3e353def3b619235U, 0xbcf923e4be28e747U, 0xbc80eab0bd91c843U, 0x3d83cef33d535f7aU,
  0x3e19b9053c013f6fU, 0x3d94e80c3bb73484U, 0xbdab70293a630edaU, 0xbe3b7dd13d30ab85U,
  0xbc61c1643d9eb78bU, 0x3d0e0c15bc015242U, 0x3d2e1aa23daaf880U, 0xbd8cc850bdd46ffdU,
  0xbc2301983dc6d7e2U, 0x3dd040bdbdcba932U, 0xbcf62fadbcb1a842U, 0xbccc264ebd8a18d3U,
  0x3e15a1c23add3b33U, 0x3d179ed9bcd7eb79U, 0xbdaa11afbe0f87c6U, 0xbcba1dc63c779276U,
  0xbe224d373bb9acc5U, 0xbda26b3e3e36f2b2U, 0x3cdfa02f3d1ac4d3U, 0xba9a9fb4bc7c259cU,
  0x3dde14f33c145c0cU, 0xbd365baabd7c4a0bU, 0xbc607bedbc9ab11aU, 0xbdfdf80c3d809b16U,
  0x3dbc5527bd78b015U, 0xbc4f9c563df58544U, 0x3e189147bcf79d0cU, 0x3cb5c4983d8667d1U,
  0x3de400fabd531b69U, 0xbca310c03d82e953U, 0x3ded98273d52dcabU, 0x3af6a7f43e6322beU,
  0xbcb935f7bceedadcU, 0xbdd077f8bdc17f1aU, 0x3d251cda3df10702U, 0xbdeb25e6be1fe642U,
  0xbe6f15a6bda55167U, 0x3d9b7dab3cb3275cU, 0x3bc6fea13d12a8c4U, 0xbdbbacc43d5105ceU,
  0x3da370c83d3dd547U, 0xbd0a4ffcbdd6edd5U, 0x3d743c7e3e04c652U, 0xbd2fb11cbd94f55cU,
  0x3e3e97acbd6ba574U, 0x3d92b9a33e38dc12U, 0x3cce18073bf9b894U, 0x3d83cb683dec54cdU,
  0xbd1db7eebc89d4efU, 0x3d73e931be614c1eU, 0xbd15ac74bd4cee25U, 0x3c677dc33d2f91eaU,
  0xbe211cc5bcfcb805U, 0x3e51a8c73dfae571U, 0xbd3951143e3f4ec3U, 0x3d6c46113d882fc5U,
  0xbdcfcc61bd654f00U, 0xbd9c7c023e0db1abU, 0xbabf5859bd876f05U, 0x3e7e2cabbe2976c7U,
  0x3d24d8c4bd19a283U, 0xbde7b2a0bcb0fad9U, 0x3e12885d3dea57a1U, 0x3e6d31c83dff596bU,
  0x3d961e2fbe338e4cU, 0x3e2212d8bd11b168U, 0xbeae4af93cf5f795U, 0xbddfb617bdb5d5baU,
  0xbd1bad873ad712b1U, 0x3cb2885e3b926328U, 0xbd96d3d2bcbf0057U, 0xbe87bbebbe1c6728U,
  0xbcc2504ebdb7a2edU, 0x3d294beebd862d81U, 0xbe095d953d097ca4U, 0x3c1143403e501cfdU,
  0xbd947a6abdb4ce26U, 0xbdc3efc3bda694d5U, 0x3ddfa5d1bce7d2d3U, 0x3d6c82debe1fe975U,
  0xbe15da50bd01bf32U, 0xbe097589bccf4c80U, 0x3e834935be5f7f71U, 0xbd0fe9cdbcea27bfU,
  0xbd1d7ad93da76208U, 0xbe0889a1be249198U, 0xbcd59a883dc791e4U, 0xbeae1600bde3fed1U,
  0xbdb7f392be29a710U, 0x3d97169abe410f13U, 0xbce135babe298eeaU, 0xbe7153bc3d1b36c7U,
  0xbe35d867be0c41a4U, 0xbc846de0bdd31e6cU, 0xbda0e749bd8e0512U, 0xbe4042033e3e272eU,
  0x3d738f723d933961U, 0xbd3e64c13ce3ceb7U, 0xbcec2828bb1db4c6U, 0xbd9ba60ebc3db1a6U,
  0xbbc63d66bcff904cU, 0x3d6f7482be22ae72U, 0x3bb99ab63c6ec5e4U, 0xbe13df7cb7920806U,
  0x3e3489703e014850U, 0xbdb8be053c5635a3U, 0x3de1258d3dd8afdfU, 0x3dd7842a3d9602b2U,
  0x3b859a693c8b46bfU, 0x3a1cba9a3dfdb630U, 0x3d3150503dce44c9U, 0x3d89a5ddbdb3a689U,
  0xbdb4fb3bbe55f4dbU, 0xbd9c9d9abe30a271U, 0xba2b206dbb370671U, 0xbd6a040e3c8f8c56U,
  0xbdd591eb3d84391dU, 0x3e415ed33da5405eU, 0x3d0f4c633dc83d45U, 0x3d677301bdf2e15bU,
  0xbdb8ae34baa90962U, 0x3ce588babe45fff6U, 0xbd181565bd88314aU, 0xbdbe3f893ad78a69U,
  0x3d00e28c3c96caeaU, 0xbccb0cffbc293ba8U, 0x3d63c258bd2a07bcU, 0x3e0bcc333c2b045bU,
  0x3e014d48bd75b84bU, 0xbcc3e5893e0c8965U, 0x3b193d7f3e9fabfdU, 0x3df3e5e33dac78b4U,
  0xbdbda6f8bd0af656U, 0x3e0e0929be320ee8U, 0x3cda16c53e084ba1U, 0xbc300d46bdad59c0U,
  0xbdfa5431bd07ccbaU, 0x3d6580763d5d2a48U, 0x3e80e4b03d9ea42bU, 0xbe14545bbd166bd9U,
  0x3dc94c9fbb8c9f44U, 0x3dc26d863d072eb1U, 0xbe0d8cf7be31cdadU, 0xbd2446143d90fc9fU,
  0xbb9ae5c4be478faaU, 0xbd9e1fa43b2ca3d0U, 0x3e03fe353d0b22e5U, 0x3e11a0693b8c40c3U,
  0xbcf9ec0abd4072c0U, 0x3c30e2e9bd3e7039U, 0xbd88cebb3dc489a7U, 0x3d963553bd0bcaf5U,
  0xbc3613af3de44e6dU, 0x3c2c1bb53d55a573U, 0x3d6520b5bd5fbfb8U, 0xbc2f1deebd6a69a2U,
  0x3d6541e6bd82bc2fU, 0xbc96dbb9bc939a96U, 0x3d74a4a8bdce66bfU, 0xbd95282a3db0b56bU,
  0x3d6d1a6a3e18d961U, 0xbdef09f93dc9057cU, 0x3dd3e5473dee7827U, 0x3d9433bd3d821568U,
  0x3de841efbe03c670U, 0xbcf5d4303de55451U, 0x3e1197d13da8a4a8U, 0x3d904fc9be4b5f1aU,
  0xbb26a0a2be091eabU, 0x3e3d1a3b3d3a2366U, 0x3d93dc993e23291eU, 0x3d92d9f4bec0977aU,
  0x3dc5347ebc8790e2U, 0x3e5939a33d599c30U, 0x3c7ee4573dd164ddU, 0x3e2c92163d5a2275U,
  0xbd8bc00c3cd277d8U, 0xbd54fa4a3d6eff0cU, 0x3dbecdd23e5844a1U, 0x3e4288fdbd9a4768U,
  0xbe164c1d3d13a0a0U, 0xbcd2deb9be12d3daU, 0x3d8e8b74bd0cfee9U, 0x3d05f0013d6edf47U,
  0x3db45d2c3e679f85U, 0xbbf87dc33dcd99f8U, 0xbdb216a0bd51d9baU, 0x3ca036e8be089a53U,
  0x3dba194bbd7bcdaeU, 0x3cf4bb26bc1b2321U, 0x3da89c04be939d16U, 0x3df2fc173ccf36d9U,
  0x3bcbbe30bdc19f7bU, 0xbe16ff373d97a198U, 0x3dad90803cbe53ffU, 0x3cf8cee63e03295fU,
  0x3cf3aec3be12f278U, 0xbe0e1565bcfd23f5U, 0x3d42c720bcbe81a0U, 0x3e2ea0c83e0fbf67U,
  0xbdbcee583c74054bU, 0x3ddd86b93dedbeddU, 0xbe22997abce59f16U, 0xbd070910bdc633ebU,
  0xbe26cfb3bd2a939bU, 0x3e05ff7dbdf2baa7U, 0xbe0a0e71bd969b1dU, 0xbe01bec9bd6fb7b1U,
  0x3bb56a893d17605dU, 0x3cc679e53d8a47acU, 0x3d67339abdb50649U, 0xbd30ada33db1bddfU,
  0xbe69e5d4bd378459U, 0xbd601c663e217c87U, 0x3da8ac2fbd87b0a9U, 0xbcdb7dc83c6af573U,
  0x3d4a24763e5667bfU, 0x3e013d0cbdf20944U, 0xbd1687b73e617053U, 0xbcb19b593c8ce33dU,
  0xbcc69ede3d8794d7U, 0x3ce6131bbd886611U, 0xbd2264093dac85b8U, 0x3d03b862be4a2ea6U,
  0x3e116b58bd72be2aU, 0xbd4db0c9be5b70b2U, 0xbe0cd61bbdede251U, 0x3bf9bff5be9d9ee3U,
  0x3c1ba408be05a58dU, 0xbd4f161bbde82f56U, 0x3da1d031bdad072eU, 0x3c6e0f2dbddbfb5dU,
  0x3d8a6fd33d4466bbU, 0xbc1b9fd83cc45badU, 0xbd7177933de97c3dU, 0x3b8b8bb0bb171070U,
  0x3e34191c3d30f8e7U, 0xbcea4c1abcdeae2fU, 0xbe55bb37bddb0c28U, 0x3e42d519be3808efU,
  0xbd36a6d43b80a024U, 0x3d96b69abe3e9d6bU, 0xbdbbd09ebe06fe9fU, 0xbd6548d43cda7f57U,
  0x3d9670a43d644bfbU, 0x3e18caf1bd1265e4U, 0x3b8eb5bf3d8abbbeU, 0x3bbf5361bd97c18aU,
  0xbd89663a3da14e77U, 0xbee165febdeaf630U, 0x3d6bd6193e047f66U, 0xbe889afcbbd54ce1U,
  0x3e0eaee23b375901U, 0xbd9eea4a3d899db8U, 0x3d90e633bd8b23cbU, 0x3d9f6fa4bddf3c31U,
  0xbd8bd267bd3126cfU, 0x3df97523bdd6715aU, 0xbd42fe0abddebb4aU, 0xbd47bc15be30a2f9U,
  0xbe2272c63e283a3aU, 0xbded01cbbd0a03e5U, 0xbd3cf91f3d829da0U, 0x3e3d11eb3d0964e7U,
  0xbe4bec66be1881e4U, 0x3cf97475bc49cf76U, 0xbe19745bbe21ce4dU, 0xbe0655083d6118cfU,
  0xbd4aa330be4e3574U, 0xbd1b5e09bda408a3U, 0x3d1d7b8c3da8c728U, 0x3d5344e43e29df6eU,
  0xbc8f6dfc3da3ee0fU, 0xbcccb1c33cd32590U, 0xbd55e21ebe008f3dU, 0xbdf88c5a3c2cc106U,
  0x3cf04a97bdc4d3d0U, 0xbe2b85bbbcdb774bU, 0xbe021fa8bcf0ec58U, 0xbd2d521fbc9d7ab8U,
  0x3db3524ebca12a00U, 0xbe169c4c3df87884U, 0x3d6a06a23d6bfd59U, 0x3e8f4f083a7a4925U,
  0xbe03f7bc3da9817fU, 0x3d23440fbca9ce10U, 0xbd624c403e13a4d5U, 0xbe1fe2793d3cf65cU,
  0x3e80764dbccb562cU, 0x3e6dab04bc814606U, 0x3d4d04a9bd4bb87eU, 0x3dac06d83d37f509U,
  0xbde4b44fbdbc84edU, 0xbc6717e6be92dfaaU, 0x3d5ae852bd73d9dfU, 0xbb1d4e62399b5795U,
  0x3d5307803cda61f8U, 0xbd6364c03cca61caU, 0xbd3b1d553e307ce9U, 0xbdd0e086bd7e7baaU,
  0x3ddcaab43d44a0d0U, 0xbdaa54893d382482U, 0x3d66ceee3d910d64U, 0xbe24b7a8be1e450fU,
  0xbe701040bd99b8a8U, 0x3dd67e4bbc4dd42dU, 0xbe23818cbcbb9f40U, 0x3bbdecf9bd5e9821U,
  0xbe27bbcdbd9f29e1U, 0x3d6716603d78bf70U, 0x3da010cbbd201c7aU, 0xbb81b07e3de75b09U,
  0x3cfdd83abd72b913U, 0x3d9930ebbcb45dbaU, 0x3d841bf5bdb2856fU, 0xbc3195c93ba1f2a6U,
  0x3d9806f0bd1752e7U, 0x3e3c61163d4bb059U, 0x3d1cbfccbe12ce48U, 0xbd1f2616bc36cb7bU,
  0x3d296cd9bd1f834aU, 0xbb1374e8bd18b48dU, 0xbd8fde1fbd4d2b05U, 0xbac422eabde8029eU,
  0xbe081fd9bda16a38U, 0x3e029923bea150f8U, 0xbd5ed4bcbce34229U, 0xbde68fd33e266ca8U,
  0x3e7d4eba3d8cc319U, 0x3dd8c8e73cd804abU, 0xbd7ef2f73e02a461U, 0xbd2fc045bdb4e336U,
  0x3bfa226abd155144U, 0x3d913fac3b048c0dU, 0x3dbc0f08be53e194U, 0xbd131d90be4340cfU,
  0x3d9aea5d3c980abcU, 0x3d987067be51ca89U, 0x3dfc9493bded87a6U, 0x3c11cd8f3d812f80U,
  0xbe3a688cbcc1558aU, 0x3d3f8014bc18e681U, 0x3dcc41a43d61268fU, 0x3d9dc9acbd5dfb50U,
  0xbdd0f20cbb2f7d39U, 0xbc59fa403e03489aU, 0x3d2baa8dbc9f5682U, 0x3b508960bbd73489U,
  0x3e0290a43e3b70bfU, 0x3cdae765bc8a41fdU, 0xbe245ebb3de8ca5cU, 0xbda22876bc8c7c6bU,
  0x3d44f0a53bbd8420U, 0x3d5613543cd39139U, 0xbe0de2be3b435aa4U, 0xbe49aa37bbf47de9U,
  0x3e08443f3e64d847U, 0x3ca2f1febce7d092U, 0xbcd5880fb9b569c3U, 0xbcc231ae3cbc1ac0U,
  0x3d7c0de13b6805c8U, 0x3e0554883d126283U, 0xbdadf57c3d40f4d5U, 0x3d8597a73cced15dU,
  0xbd0927bebe07410fU, 0x3b98fe97bda228a9U, 0x3d569e84bc8c3256U, 0x3d74ba303c1ec19eU,
  0x3c353e243ba39799U, 0xbd1590193d1aba4cU, 0x3dbcd163bd6710ffU, 0xbcb36327bce79150U,
  0x3daa72243d883088U, 0xbcd0bcda3e0d461aU, 0xbe09ebdbbd2fa66fU, 0x3d19a9993c818d96U,
  0xbe424e7ebdc3b49aU, 0xbc232174bdad71feU, 0xbd12987cbdae28d2U, 0x3cd4e1dc3dbc1712U,
  0x3db3b758bb8a8c65U, 0xbdc07ce6bdb006a2U, 0x3cd7a835bd4b99c2U, 0xbd0dd9b73d50e9f8U,
  0xbdf8f1d33db1d2c2U, 0xbc19a39a3d413befU, 0xbb2cef98bc9282ecU, 0x3da139673dae6c00U,
  0x3e083c3c3d37a9acU, 0x3ca2baaa3da01d6eU, 0x3db832a8bddbc33aU, 0x3ccaa1423d9375b0U,
  0xbe3ef0783e589f5dU, 0xbc2e84163ce12c7dU, 0x3dbc95f43ded3d2dU, 0x3e0a98623d155750U,
  0xbdea5f70be58c576U, 0x3d7b09c5be05b7a5U, 0xbd19a46cbde1b73bU, 0xbc88be05bd26462eU,
  0x3dc7ed45bdd424e5U, 0xbe0147223e16f850U, 0x3d0614c13de1389fU, 0x3c74fdc93dd95349U,
  0xbdaa4c4e3e1d8eecU, 0x3df1dc40bcd6b160U, 0x3de6b7843afc49faU, 0x3d0591fabe06b6a7U,
  0xbd28ad3d3db5e8feU, 0x3d4384943c76d3adU, 0xbe1268ca3d86ac48U, 0xbd3546f7bc8cd42bU,
  0x3cbc43a8be50ef06U, 0xbc9545d93c81be1fU, 0x3dcac0bc3d8c63a1U, 0xbc8baf1a3d9abb41U,
  0x3e77dee3bcc608deU, 0x3d1c99483b1e7ddfU, 0xbb90dc19bc280dcaU, 0xbd9a50bcbdb83d7eU,
  0xbdd6b2cf3d946679U, 0x3d18b2febd1e7e29U, 0xbd9803653b0f6c44U, 0x3d85abab3c5adfa3U,
  0x3d6907b63c3c10b0U, 0x3d954b793d75c89eU, 0xbddfae3a3ddd9eb6U, 0x3cfd2165bd2d097fU,
  0xbe486fb93d6301d2U, 0x3c9ca5d9bdd64934U, 0x3df09f423a94536aU, 0x3cbcd936bd9455daU,
  0xba91c8fcbd1a3d97U, 0x3ce57d4bbc795e68U, 0xbc02b5a63c8357a6U, 0xbd5a86babd65fdb9U,
  0x3d94f3ac3da4f4e7U, 0xbe2a1f963d355af9U, 0xbe2d1325bee0db97U, 0xbbb7bb7ebba5feeeU,
  0xbda4fcf8bdb1c695U, 0xbb8873d73b20e9d0U, 0xbca16e95bd5556faU, 0xbe1307edbcafb7a8U,
  0x3dab5b05bd48c0f8U, 0xbe234f223e279c2bU, 0xbd3916e4bbc6d355U, 0xbddc000a3de05b45U,
  0x3daec9083d0dad35U, 0xbd9895553c9c887dU, 0x3d8f66a3be1557b4U, 0xbcfb56c23d3af740U,
  0xbdd7898abdb1e697U, 0xbdc6db623d6c5c23U, 0x3d15986b3b717afcU, 0xbe19bdc9bd2cd504U,
  0x3cacf18f3c8ebe57U, 0x3d8f00e43d7bcc2bU, 0xbcac0e643d082a9fU, 0xbe55e8f33d9da8edU,
  0x3d7bbc463d0e7b90U, 0xbce17fb6be1521f8U, 0xbdbdf45abd82c929U, 0x3ce6a273bd392af0U,
  0x3ea564cfbd302d04U, 0xbe9b63cfbe0ef224U, 0xbc02233a3da3c876U, 0xbd0677373dc5f57fU,
  0xbd8e2e98bd9d953fU, 0x3da8a7f0bd795dfeU, 0x3d24ecb13bc8c605U, 0xbd7cebfcbd9678d7U,
  0xbd1b46123cc0f1b2U, 0xbd65bab5be10d449U, 0xbe3c3a5fbd544c5fU, 0x3d0e4fb6bb2e7221U,
  0xbe06de753e3722ffU, 0xbd480e3f3c9e5ca6U, 0x3e090816bc5ecd99U, 0x3c86e2393dd1d08aU,
  0x3da1aa60bd25592fU, 0x3e5ae654bc4e8934U, 0xbe28a0a53daea9a1U, 0xbd5a78c1bd34d80cU,
  0x3d1042f0bddc563eU, 0x3e1e6883bc4f8cf5U, 0xbd06fd813c3c44d4U, 0x3d0a31443d305331U,
  0xbe4c4da4bc3991a4U, 0x39984926bd992a8cU, 0xbd8be363bdc5f7fdU, 0x3d659f483c0b5a85U,
  0x3e0c39d53e32e4edU, 0xbe3fac3bbd8e4c02U, 0xbdd3dcd4bd18e599U, 0xbdecb29bbd3276bcU,
  0x3d04a0623d0071bfU, 0x3cb32befbd75637dU, 0x3dc96e9ebdb50fedU, 0xbe13b08fbe926a3eU,
  0x3d2ac3b9bd3af357U, 0x3de723a3bcfb620bU, 0x3cdd410c3c8ad3b6U, 0x3e3fc572bc8b04f8U,
  0x3ddc1f77bdeee558U, 0xbde1937a3e248f52U, 0x3d10d79b3d2d8183U, 0x3d4dbfa53be7c6ebU,
  0xbc439aa6bae53038U, 0xbd9d3b21bdfb8ffdU, 0x3dcf0ad03bf26b83U, 0x3da41efc3de4442aU,
  0xbd3c49bd3e07d2b9U, 0x3d3f39793de31d29U, 0x3c7f39a1bd26f6c0U, 0xbd1f0fd63e12e5c3U,
  0x3d5384bf3dbeaf71U, 0xbdde39c63c81518dU, 0x3d93c5103d932aeeU, 0xbd88e39fbdf4cf67U,
  0xbd6fc31f3dacc553U, 0xbdf57fa9bd34f559U, 0x3d1d56d9bca690e2U, 0x3e7b96efbd073c74U,
  0xba9edc6dbd8ae882U, 0x3d77da4b3d312560U, 0xbe0f5eca3e96ae42U, 0x3d12a1e63df97089U,
  0xbd83fbdfbe2f0adbU, 0xbda62ba33dbbf5e8U, 0x3cde53bc3e48920eU, 0x3dea310a3d570fd0U,
  0x3d88ff7b3e35b7acU, 0x3e427c863d25ea35U, 0x3d19749fbd67a937U, 0x3d88292abe213552U,
  0xbcd18e943e402a65U, 0x3e1b250ebdf01a91U, 0xbd69f29bbd4568bfU, 0xbdfa7e2a3cff70aeU,
  0xbcca2f8a3e0c3224U, 0x3e59bfcf3c293d89U, 0x3e166c23be419573U, 0x3e604c1bbc1b4764U,
  0xbd4a1788bd82363cU, 0x3dbd57febe4a1f2bU, 0xbdb78a183e400ba7U, 0xbe8548f9be28c1b5U,
  0x3d6688143e110c12U, 0x3d1da5e03d273afeU, 0xbd6ec1f0bcd682b3U, 0xbe3550c33a759341U,
  0x3dec2ad6bd2f0e0fU, 0xbd5043b2bbc2f2ccU, 0xbcd300a23c891f19U, 0x3c10a5d23bc3b9baU,
  0x3d803204bd9bbccaU, 0x3d9b8c21bca36238U, 0x396edb93bdda79edU, 0x3d464ebb3d4f47baU,
  0x3ba8ed8b3e329554U, 0x3d254960bae7bbe5U, 0x3bac8bfa3bb7fefdU, 0xbca3995abd7ee87eU,
  0x3e0be0923cc6e970U, 0xbcee7b843d225e7fU, 0xbd92688d3d3af042U, 0xbd7036863d96c2dfU,
  0xbe0af919be225e0cU, 0xbdea7c523db0f187U, 0x3d9d1751bb5338c1U, 0xbd39be5e3d01e5c2U,
  0x3e2c22cfbd4241eeU, 0x3deeb5d4bdd48ae1U, 0xbc87b870bc911258U, 0x3dac04153e014eabU,
  0xbd586846bba555b5U, 0xbc9fd5adbca31e4dU, 0xbdb2004fbd94a34bU, 0xbe33f2393ca6f8c3U,
  0x3e1a871a3db93d15U, 0x3d940c873d782619U, 0xbb6186ffbe4f031cU, 0xbd3c589cbe01335cU,
  0x3ce5620c3da10ee0U, 0xbd017f90bd43c16dU, 0xbd7f98f4bdb70ab8U, 0xbd8e9d2f3cbd2ddaU,
  0xbda3b6403d3e513dU, 0xbe2f903fbd1dea11U, 0x3e3b72cdbd639007U, 0x3a904f5abcce18fcU,
  0xbd65789a3e59099cU, 0x3d8821b33e003126U, 0x3dc47ee5be40e7bcU, 0x3d5798e13d3bfafaU,
  0x3d1dfbaebd5eca9cU, 0x3e14b38e3e394001U, 0xbd96cfa7bd49398bU, 0xbdc6f9e13e0df6a1U,
  0xbdda0cfebe31beebU, 0xbe05d90f3cb4ee8dU, 0x3b923e26bdbc6e48U, 0x3cd2eb25bcc5ef64U,
  0xbc983fc83cd7ee90U, 0xbe24db593d8e27f6U, 0xbd9d91143e2fe197U, 0x3e3c683a3aea233aU,
  0x3c86788abd276287U, 0x3e059efebd8378f8U, 0xbe369fc03e2f24e7U, 0xbe688d0ebd9108eeU,
  0x3d0ed99b3df780a1U, 0xbe0c5107bd8191baU, 0x3da2b982bd1397d4U, 0x3dd37df83e161cadU,
  0xbd14972fbe09619bU, 0x3dca37e5bd00614fU, 0x3d66c8eabd6c2e86U, 0xbd1b31ec3c573bdbU,
  0x3c95481fbe545b28U, 0x3d35c7bdbdc42390U, 0x3d51d4fdbd3ecd36U, 0xbd909aacbdc4c59dU,
  0x3b60ef13bdf51999U, 0xbd44db24bd5abebeU, 0x3be6ca3dbcbba7f3U, 0x3d67e82cbdc0e675U,
  0x3d7145e33c838ba7U, 0x3c8321c53dd14646U, 0xbd6ee57c3c83940cU, 0xbdc0366bbdf370b2U,
  0x3d4effc03c0e0f01U, 0xbcd1d7f23d501ab5U, 0x3d58307cbd8075c6U, 0x3e017118bd7c805fU,
  0x3d37df37bcd314bfU, 0x3d03c2e8bd04acbdU, 0x3d5d8e0e3ce1a588U, 0x3d14e0f23df8cbb4U,
  0x3e2be4373cae100bU, 0x3d8ffc63bddbe101U, 0x3da272c2be05255cU, 0xbd66d4dc3c4830d0U,
  0xbe18b303bcca0dafU, 0x3cbc12ce3e15680eU, 0x3e175aa6bd342dfcU, 0xbde34c4c3c7b2fc8U,
  0x3d5c8c28bdc0e2d0U, 0xbda15b0fbda6e72bU, 0xbe320a04bca6ef19U, 0xbe4c0242be0d81a6U,
  0x3c9d63cd3cc5ae23U, 0xbe1d11ba3ce2b98cU, 0x3ce5af853ce1d0e8U, 0x3bc57a25bb08445eU,
  0x3c953e153e16886fU, 0x3da1cc6f3d34754eU, 0x3d0f726dbdbd8a5fU, 0x3d0819cdbc3b9bb5U,
  0xbd9ca58bbdc8ab55U, 0xbe06e63cbe3adc1dU, 0xbcc80d91ba8ce632U, 0x3d146edbbd1f8a77U,
  0x3d5beac43d9a09f2U, 0xbd79e6b93dac64fdU, 0x3d311dc6be1abd17U, 0xbc9209a63d4f6749U,
  0xbd17ee34be58dfb9U, 0xbe44f2773db80ae9U, 0xbded9ab53e2a30bfU, 0xbe61d21cbcc237ffU,
  0x3e12eeb33d23bd30U, 0x3e17312dbd37bc11U, 0xbce7bd60be397bd3U, 0x3d8bf088bca0063fU,
  0x3d18f94ebe4ae665U, 0xbdfa5c5c3d7fbf59U, 0x3dbebea63bb69d07U, 0xbe002bf9bc8a9bd5U,
  0xbe0b7d613daceda6U, 0xbd18c4033d8688b8U, 0xbc01070e3e235863U, 0x3dab813a3d07bbfaU,
  0xbe545aa03e809c88U, 0x3c6fd259bc877c32U, 0xbd6882eabd37e8f6U, 0x3d007e4a3cde535aU,
  0x3cebec86bc675c65U, 0xbeb4b175bccb5c32U, 0x3dd003853d4a383fU, 0x3cbd30d03e808547U,
  0xbd75de17bb7b4720U, 0xbdaaccc1bdde7500U, 0x3c6157abbc99e979U, 0xbd43aab1be559774U,
  0x3a1fff1bbcdc8edaU, 0x3d0d9e583ced300cU, 0xbd25c2c43d9dc148U, 0xbd310154bc40e0abU,
  0xbb19073e3df28718U, 0xbdb659f1bc27f606U, 0x3dcfbf8cbd2abfc7U, 0x3d10c1593db9736eU,
  0xbd422cc33d5684ecU, 0xbdd93420be5ae1f2U, 0xbdb7d195be3a8f06U, 0x3dcb817fbe575db7U,
  0x3d11debd3c9ebe09U, 0x3db53d4a3d4595a4U, 0xbda8445f3d5cf7abU, 0xbcad0ca53d971339U,
  0x3d9ddbefbcca7730U, 0x3d6ead513e0dcddbU, 0x3e1712063ddde1d1U, 0x3d734e8ebca1ef3bU,
  0xbd90d05d3e2aac15U, 0x3d85616d3d47ed67U, 0x3ea065bfbd0f3be4U, 0xbb30371b3cf0ada7U,
  0xbdb670183c6fdca4U, 0xbe095c52be219e73U, 0xbd0eb39f3d891484U, 0xbd8250143cfeab10U,
  0x3c871f413d2b56fcU, 0xbc6a4da3bc835fe7U, 0x3db006153d3c0974U, 0x3e10c3a9be1faf06U,
  0x3d8f356b3d800b69U, 0x3cfa24bebc829e4aU, 0x3cdb62f1bca41706U, 0xbd4384d43d3518b5U,
  0xbb53dfea3d4c9e7fU, 0xbdb2a2a3bc3ab401U, 0xbb27b823bdaca91bU, 0xbccd84b53cbd5241U,
  0x3ddeedc5bc863c6eU, 0x3d624189bce3d307U, 0xbe35f3a13cc51f01U, 0xbd1e7a0dbd61f042U,
  0xbe170689be4d6c40U, 0x3cd1505fbea82d9dU, 0x3d17befe3dba5608U, 0xbe23ed3e3d8eaa4fU,
  0x3dcc14363dbb34bdU, 0x3e2fae64bccf0c12U, 0x3d10eecebba141bbU, 0x3b59f84a3bb74d46U,
  0x3c8443c13dd1854cU, 0xbd6f1e65bdb159d4U, 0xbdb357383dd4a645U, 0x3b4106c6be2869d5U,
  0xbd7ca968be209c0cU, 0x3b989f1cbced2e1dU, 0x3d33508139af763dU, 0x3c8d706fbba5aa60U,
  0xbcc66400be034c02U, 0x3b0ba70c3d4c663eU, 0x3d3b208ebcf760c8U, 0x3ceadc533dfbe75bU,
  0xbd8d1817bd4dc16fU, 0x3b96ac8fbc892034U, 0x3e49ee613d8a065eU, 0xbc6f35d9bc862a96U,
  0x3db2330a3d7cd5f0U, 0x3e845638bd296cecU, 0xbda406fdbdafbc4eU, 0x3cefef64bde06eecU,
  0x3e01af23bcbee7c4U, 0xbdba45273d25c2e6U, 0xbdb1a2053b65aadaU, 0xb7a079993d829ea3U,
  0x3d7fdbd93be2742bU, 0xbe04f11f3d4a7e24U, 0xbc392e343e02891eU, 0xbcd6fc48be50495cU,
  0xbdc5c6193d232be1U, 0x3d49221b3d272166U, 0xbde0b8c83cbb8271U, 0x3d9440bbbe1fb041U,
  0x3de2c14bbdcd4ec5U, 0xbe21913ebe0d6ea3U, 0x3d9981b8bc834d44U, 0xbdb90916bc663f4fU,
  0x3d1e0de2bd087357U, 0xbd82c2c43e1cb4d5U, 0xbe0731063d98a0b2U, 0xbdc478d6be1bea0aU,
  0x3ca9b11a3db08089U, 0xbdea25543d3b538eU, 0xbca83cf0bc748f41U, 0xbe7d30ec3cd961d6U,
  0x3c7260afbc8f7b42U, 0x3df619273cce6124U, 0xbca8999abdc79661U, 0x3d3db9c33dbb8d9dU,
  0xbd2c00d0bde6a6d1U, 0x3e3f7c763d9a67cdU, 0xbdc0ff09bdcfffe4U, 0xbd7846be3de4d297U,
  0xbe13a2c6bae97174U, 0xbc378ce03def67e4U, 0xbc592b983da0aedbU, 0xbbbe72ea3e2b14d8U,
  0xbc9c819a3d77c1bcU, 0x3c9fd8483e0a3298U, 0x3ce55e153d968fb3U, 0x3df17c1c3db00336U,
  0xb9c2ed733d93eac1U, 0x3c9204703e197930U, 0xbdcf8acd3dec92e3U, 0xbc1bdfdebd4b8917U,
  0x3d2a07983d8818b9U, 0x3ce3effa3d589a2fU, 0xbd41bbf93cba6b68U, 0x3dc987e63d607693U,
  0xbda23710bd09c444U, 0xbc8952513e22d4dbU, 0x3d53d70e3de3279fU, 0x3e7086833d4ef725U,
  0x3e36e4dabce0e8a2U, 0x3dc8c443be76d023U, 0xbcdd03e1bca76256U, 0xbda632c7bd004023U,
  0x3e0cdf5ebe0ab541U, 0x3ddae0e9be30847dU, 0x3ddd8fbfbd631671U, 0x3d8ce1013cf61ddbU,
  0xbd0026163d32b063U, 0x3d9a203b3cbc4eb5U, 0xbd0204213da85a31U, 0x3d04c7ba3cb4eee3U,
  0x3cf96672bd8326cbU, 0x3c8cbe743b2592f8U, 0x3d3c7f5e3b446bccU, 0xbc4ee0853d212b7dU,
  0xbdcf405a3c5e1aaeU, 0x3d00f93abe205075U, 0xbdf6f712bbab8c68U, 0xbdac5dc83dd08121U,
  0x3c4ecc7ebde3fcccU, 0x3b783c7d3cc44f55U, 0xbcb50f123d929a33U, 0xbe01163c3c3829b8U,
  0xbe60d37abb4e51e0U, 0xbd2629cb3c18deafU, 0xbc254b693d0c2d9cU, 0xbd4cacf23dba5d04U,
  0x3d9ada473df09608U, 0x3e0733fe3d63f0a1U, 0x3b844453bcdf8d12U, 0x3dbdfbb53e1338d8U,
  0xbe0f5f9ebde3eee8U, 0xbe01e5573d09e039U, 0x3c90ca78bda064a4U, 0x3ca7fce2bd12ba18U,
  0x3cd29195bd9b1bfdU, 0x3d38e9dd3e8dfb31U, 0xbd58502cbd9afa4cU, 0x3c362a5e3d21356bU,
  0xbe5074a83c8566dcU, 0x3da53bf5bd0a5dcaU, 0xbdaa09163d8dce81U, 0xbde1a1893cced96bU,
  0xbd09b463bda71a42U, 0x3d962d73bcb22c7dU, 0x3ce878e63d59d27eU, 0x3bd68befbdcd01e9U,
  0xbdd23cd8bd09e758U, 0x3d8fa60ebe00fd26U, 0xbd0e4af03d41daccU, 0xbdc5024a3e1c7f1eU,
  0x3d79f0e33d33e1a3U, 0x3dad31afbcf07c94U, 0xbd8e7f6bbd635ff7U, 0xbe045649bd53aa42U,
  0x3dc9a7533d86ab0dU, 0xbe01d01c3d81f3fdU, 0x3e38ad68bc807f8dU, 0x3a392881bcf0b142U,
  0xbd992aeb3e0b7ec3U, 0x3e07ba46bd92f146U, 0x3ca26473bdf75e1cU, 0x3cc97ca03cbbd695U,
  0xbde0d63abe015053U, 0x3d4b66633e5ac4d7U, 0x3d870eaa3e0e15caU, 0x3e07368f3e0f2d40U,
  0xbde573efbe1cc090U, 0xbc1bf3c53e4ee194U, 0x3cae786a3d0624d6U, 0x3d0a9bbebd9669a0U,
  0xbcf5fa53bb5b23c8U, 0xbda3b3d43cc92ab1U, 0x3d931242bcc86404U, 0x3b53cb563c308935U,
  0x3e1c808a3dec0fddU, 0xbd637b303d80e7f8U, 0x3cb2e6c03d3b64cbU, 0x3c9dfb403ce961e7U,
  0xbd844debbd9b217dU, 0xbd85371a3cbdf5b1U, 0x3d288d793e8e60d8U, 0xbceb22c3be0a7a9fU,
  0xbde9df81bd945401U, 0x3d0ccea43d9b0ce1U, 0x3cbf1c1e3e031ac9U, 0x3d209bf9bcc2a6b5U,
  0xbd1a4864bd4d1e7dU, 0xbdc2dab9be4c7143U, 0xbdfeafe8bdec7393U, 0xbda74fe3be09b2c3U,
  0x3d33df423d2cd8c1U, 0xbc1276bcbd754d83U, 0xbd8350a3bd87e4f5U, 0xbd93bc093e056d51U,
  0xbda6f8ccbd30ec07U, 0xbe05e33cbd85eb92U, 0xbe2238f3bd899749U, 0xbd3d91e7bbc1e928U,
  0x3cd724ef3d3c0c4cU, 0x3e2f2b8cbe753a1dU, 0xbe3a4365bdbcc38bU, 0x3d82fade3e01c3b8U,
  0xbc64b3afbdb8068aU, 0xbd87a0803d00250fU, 0xbd029db9bdaa2ff7U, 0xbdfafa163d888c29U,
  0x3dd5cf47be51eb1aU, 0x3d1f3e523de388dbU, 0x3e71e0d9bddd56b6U, 0x3e7581293d85191eU,
  0x3db545aabe34cafcU, 0xbba561b83ba75de6U, 0xbdaaf3323a03db7dU, 0xbcacfda2be3a5453U,
  0xbdb7d12abdbdd600U, 0xbd6738743b72921bU, 0x3d19a4ba3dabf31bU, 0xbcec95fbbd309e04U,
  0xbe45203d3d7c3e67U, 0xbde27ca0bcfbf698U, 0x3c4edccabb90f5e0U, 0x3e0a08b6bd969368U,
  0x3cb9f96d3ce5b7d3U, 0xbe1bda013d3e0eb7U, 0x3dc3937c3d995324U, 0x3cacfc603e5d60f0U,
  0xbe13ce6fbd203acdU, 0x3b42ba873d89ed2aU, 0x3cf751ce3ce306beU, 0x3c394b2fbcbf62e9U,
  0xbde34a9a3cc41475U, 0x3c980ce1be0e3c42U, 0x3de944dfbd815117U, 0xbce3cf7ebde985ddU,
  0xbc317b903cb76661U, 0x3d8877ccbe131fa8U, 0xbe384ab0bc8dc7dfU, 0xbe1aaf9abdb5166dU,
  0xbd64321d3dbc1907U, 0x3d2045b2bdc39071U, 0xbd0ea035bd91c73fU, 0xbe82406dbe291f88U,
  0x3c0436493e1fa910U, 0x3caf47dbbd63e7d3U, 0x3d6a63d2ba55d9ccU, 0xbdd84482bc86f10fU,
  0x3df2d7adbdc76a70U, 0x3dcb585f3e4eaf63U, 0xbd8692debb0abe88U, 0xbe0bb2cfbe0756ccU,
  0x3cb8a87abe1ebcd6U, 0xbd61a3ddbd9228b7U, 0x3e037e573c06179bU, 0x3c6e2b35bd5600c4U,
  0x3e285cb3bd8ddd49U, 0xbd473e2ebe350257U, 0x3df004a1bdc01403U, 0xbd177814be0d588dU,
  0xbdb420083d260c6dU, 0x3db43e803cfbc265U, 0x3ca62e6d3d956815U, 0x3dbc0f59bd2fd5b0U,
  0x390620a23ce274edU, 0xbe0196f2bca5544dU, 0xbdab5adc3b92b6d6U, 0x3c6e417cbda06952U,
  0xbd91d3cabc6fb85bU, 0xbd7a0ffe3d029270U, 0xbd2b66bebcf8cc44U, 0xbba6d79d3db425a7U,
  0x3dc35e483af4a306U, 0xbe16e7303c5f58feU, 0xbd9375babc6825a9U, 0x3cfa40db3c93070eU,
  0x3e44a877be0b8058U, 0x3c4675843d8ccf86U, 0x3e308002be80f6c1U, 0xbdd5ed3fbd3f7d97U,
  0xbcf322de3da36e7bU, 0x3d86f3ca3d41335bU, 0x3db06c9a3d08cfe7U, 0xbe29d1f8be1414a5U,
  0xbcd4ddea3c36d467U, 0x3c1af222bd09132aU, 0xbc85d7843ca09ef3U, 0x3c9aa709bcbb3816U,
  0xbe40c5493c3a543dU, 0x3cf552753d8db649U, 0x3ca80148bd5e9448U, 0xbd1aa5cf3d128a4aU,
  0xbe1495463e2f2506U, 0x3cecd8c13df02907U, 0xbdf7addd3d485c12U, 0x3be137d63d4a5334U,
  0x3e115a513ddd6131U, 0x3db667513d736957U, 0xbd83ec7f3e08bff3U, 0x3cc75d8bbe1f8b0dU,
  0xbe1410dabe2aa1d8U, 0xbe5429793d8c5789U, 0x3d88604d3c876cfbU, 0x3ca2fda33a0313f0U,
  0x3d9996eabd107187U, 0xbd6dd67cbd891efaU, 0xbdac5925be2d5792U, 0xbd57721cbd37aea2U,
  0xbe3f5e0e3d43ae09U, 0x3caa7641bd064682U, 0xbd54194b3d1e4a27U, 0x3db964e63c64f9ccU,
  0xbd238f55ba77f7afU, 0x3cbb601cbc9d6739U, 0xbe477f2ebdd3eecdU, 0xbd03e85c3dac742fU,
  0x3daaf9d9bbb2344dU, 0xbd8b8488bd15d63bU, 0x3a258d0cbdb9da85U, 0xbcc77ce8be09f6c8U,
  0x3d45b99c3dedf79eU, 0x3aedbb2dbdd4b8b7U, 0x3d577310bc8e1cb9U, 0xbd279f9bbdb981d4U,
  0x3d6e9db5bdced9ebU, 0xbd3e3e51bd6a8d56U, 0xbe08b4673d9e59c6U, 0xbc9848b93c68ff25U,
  0x3b7c429a3ca72e7fU, 0xbe1c89f13d6147e4U, 0x3e07527f3c2dc26dU, 0x3dd375e4bc0cc6d8U,
  0xbc5ef7673dcf5502U, 0xbe273438bdff0d68U, 0xbcb0e001bc3c5a08U, 0x3cc37f64bccb00d0U,
  0xbe02076dbcbb3f9bU, 0xbdfe6914bcc2c601U, 0x3d9b47ec3df9f2c9U, 0xbc80891dbd24bf8bU,
  0x3dfc95c7bd115f34U, 0x3d10fdcb3c95cf57U, 0x3ca47487bd9b1ce3U, 0xbd3786d03d8eb9f2U,
  0xbd154f54bd677dc7U, 0xbc0ede2abdf35cf5U, 0xbe12c4c43c5003c6U, 0xbd7ce6d23df8c3f3U,
  0x3c95ab173c23a1d8U, 0xbd534dcc3d8e446cU, 0x3dc402303d9b7b04U, 0xbc628d7c3da94fb7U,
  0x3d4e475b3df96f0aU, 0x3d823312bc544af5U, 0x3d82037cba41b4a3U, 0x3dec11703d310d34U,
  0xbe0d758cbdff91acU, 0xbd415a983d67130eU, 0x3c59b5f63d7be205U, 0x3d2fd992bc360601U,
  0xbd3138aabd2dfd9eU, 0x3c8d41353e96633eU, 0x3d14ab3f3c978a10U, 0x3dc4fcbfbce1adc5U,
  0xbdd2dc5e3d079590U, 0xbd8ace893c0dcdd6U, 0xbd0cd9073d408af5U, 0x3dab70e93b0d19e1U,
  0xbce1507bbdfead7eU, 0x3cd2b19bbd2807abU, 0xbb24a9d43db6bd2cU, 0x3df85fca3db42daeU,
  0xbdc18f123dcfb4c5U, 0xbde15a1bbe2e1843U, 0xbe034ad63d68805eU, 0x3d986cdeb8511b6aU,
  0x3da11a173d8af6b9U, 0xbdf81b59bd826b9dU, 0x3d536251bd672386U, 0x3dc97790bccb2d42U,
  0x3e14118f3c2c81a8U, 0xbd2d5c263e39bfb6U, 0xbdd223b7be69161bU, 0xbdabbed93bffcd81U,
  0xbe0fff223db78d11U, 0x3de7b2ecbd49a5bfU, 0xbdcecc6c3cd7a217U, 0xbe3e161e3da2d1edU,
  0xbcbe303d3cc02634U, 0xbced6067bd65f1dbU, 0x3d8366c53e7127fdU, 0xbdd8c9d23dab7512U,
  0xbd1817f0bc8467f6U, 0xbd23de613d7c71cdU, 0xb76b48e8be1a71beU, 0x3e087ecbbd07c05dU,
  0x3d014b52bda67eaaU, 0xbda1502dbcead3f9U, 0xbdedeede3d1a9030U, 0xbd55ad13bd16baa2U,
  0x3d50f797bcbf6211U, 0x3d64a236bb40357dU, 0xbc6453b53daa4867U, 0xbd19928cbcc954f0U,
  0x3db55bc8bdd47c69U, 0x3d70284dbdee35dbU, 0xbe33747e3e09160aU, 0xbdf3f1dfbd82d3fdU,
  0x3d21906abd0abcfdU, 0x3dac68863d7cbdabU, 0xbd5676613e12fe57U, 0xbcbd67b53d63ce09U,
  0x3dcef103bd8df0b4U, 0xbe3968ec3d9ca58aU, 0x3ddb07abbd425c67U, 0xbe0e2e1abe290b0fU,
  0x3cac7cb4bd900416U, 0x3d315e5bbe2833acU, 0xbcc1144cbe0682ecU, 0xbd59b3f13daf7d7dU,
  0xbdd76b83bbd2bc76U, 0x3d2a5e9fbc87ec9fU, 0xbc7ad8b03e079458U, 0x3d4e66b83e8ce09dU,
  0xbe78b3dfbdfa3d18U, 0x3d034429bc0fd86aU, 0xbd42d538be1d92b6U, 0xbe643e63bd2c9ebaU,
  0xbe0fedecbd2f8813U, 0xbdaf47dabda2c69aU, 0x3e72e062be3bb7d8U, 0x3d2615703d84785eU,
  0x3dca3c9cbc231097U, 0xbd90e5fdbe1a28f6U, 0xbcab29b63e1c5488U, 0xbe22a0ecbca8729dU,
  0x3cfe675cbd1cd796U, 0xbe17bd083df77b5eU, 0x3c94e5b0bd7d7cb5U, 0x3d5ec29dbca53a84U,
  0x3b3bfc343d0df2adU, 0x3e6bc0743c2dc015U, 0x3d7cde773c9bf66bU, 0xbdab1e743d24696fU,
  0x3de88b9abbd6d98dU, 0x3cdd8924bdcb4889U, 0xbdc43211be1341dcU, 0x3d3123653dd1208bU,
  0x3d9fe4b0bdf96f31U, 0xbe0509f63d4d5aefU, 0xbc157e3c3dd74a2eU, 0x3b232dd43d5c0cacU,
  0xbcc8db2c3a2adc50U, 0x3cf6e3903b27d6d5U, 0x3dcbc881bcf11fc3U, 0xbddcf9ebbd60119cU,
  0x3da223e03e15900dU, 0xbd6f75023d8fb782U, 0x3d5921be3c2b7f27U, 0x3d20aaabbc96001dU,
  0xb9fbbc72bd11e888U, 0x3d84a4cabd5d949aU, 0x3da6ba66bd25b431U, 0x3d3765ff3c3865c9U,
  0x3dd11170bd734535U, 0x3bac38733da132e4U, 0x3d79bb9a3aecbd54U, 0xbaf82a5d3d343b04U,
  0xbdaa10983ce31856U, 0xbd5a9b85bdacc1a1U, 0xbdd4df7bbc4bdc3cU, 0x3e31a6fc3e2dacaeU,
  0xbc6a56c3be6e0520U, 0x3c73c6f5bd55d1e9U, 0xbe480ae7bc0ce3c2U, 0x3bd0f510bd926a89U,
  0xbcad65d7bd7f81dcU, 0xbcfb26123ba63aacU, 0xbb8ddbbbbdcfcf67U, 0xbd95cd8f3cc54b9aU,
  0xbd2107fd3de8fe0cU, 0xbdbb89073ca9e1e9U, 0x3c95f25e3d905605U, 0xbd0176abbcd31b49U,
  0x3d5e93513d8fa634U, 0x3cae41edbe024f2aU, 0xbd039097bd58f1c4U, 0x3d871b573dc703ffU,
  0x3d60a9403ce5bb2eU, 0xbd930e393e2b1b46U, 0xbb9e0c393e56c005U, 0x3e33de4cbdd826a1U,
  0xbe08c688b9b283f9U, 0xbcdc30733c6fa31aU, 0xbc26776f3dccea27U, 0xbdcd86ab3d287103U,
  0xbde817f33d8dca6eU, 0xbd58a4353db3db77U, 0x3d2b848c3ea432f7U, 0x3e689b2f3bf11bffU,
  0xbca540553d167820U, 0x3e113d5e3d74c468U, 0xbe048ebf3dc20676U, 0xbdb7b1f03e2dfd51U,
  0x3e0d8c963dfe5daaU, 0x3decc5ba3d808673U, 0x3d8e03713ddc32c4U, 0xbd4d6d51bd3e0d9aU,
  0x3e349f4e3d6fd67aU, 0x3dd2e6803e6e1fd2U, 0xba6b52f83d047635U, 0xbbc75e9c3e226b01U,
  0xbcbef2cabdd2709aU, 0xbd430b02bc573e7cU, 0xbdac7ff53dafe081U, 0x3bc639fb3e4cee6dU,
  0x3c156ed5bbb069deU, 0x3da3d7e03c914f6bU, 0x3cecf79a3e4a24b9U, 0x3d74e49a3e5713d3U,
  0x3d8198583da78d0fU, 0x3d92b6d33df8ddb8U, 0xbe063fb83cc4ffb5U, 0x3e1ece0cbe699ba3U,
  0x3cd8feebbd115afcU, 0xbc2fa26e3e6cc18eU, 0x3dd1f2343d345b1bU, 0x3e381a763d90a639U,
  0xbdc2aad63d9cea2cU, 0xbd0579fd3dc84338U, 0xbd8dd1b0bd87bbc8U, 0xbd0b67c83dad926bU,
  0x3d41a4fd3d57a252U, 0x3c9524b2bcea146eU, 0xbd072f56bd6d8332U, 0x3d4a48a6bcd6a3dfU,
  0x3c0d4d593dde7697U, 0xbd82ff7bbe186fbfU, 0xbd4b8054bd2605e5U, 0x3db8b4673de508b8U,
  0x3dc3c61cbc79eb61U, 0xbe0516863d9bd83cU, 0x3c01eb893d6af418U, 0xbd1f21e939f9a562U,
  0xbd332363bd8872a5U, 0x3d0c5b7a3d88f3c2U, 0xbc4c80043d87e469U, 0xbd34b9adbd1d72c9U,
  0x3d5863c13e0561a1U, 0x3e1e3e533e5a21cdU, 0xbca37242bd6ff450U, 0xbd0da6043e100b56U,
  0xbd83110c3d8b1cedU, 0x3da702e5be8630c1U, 0xbe02095b3d6739a6U, 0xbd526e043d835c1dU,
  0x3df8392dbd9488edU, 0xbd9ff87dbe4a946aU, 0x3e058afcbd759714U, 0x3e2bde9bbd8aa710U,
  0x3c987eb23d96e20bU, 0x3e0922b23e1dab71U, 0xbd569215bc87f0a9U, 0x3d11df843e40f99fU,
  0x3da265083e159a44U, 0xbcc7e2c93d3cff63U, 0x3ba4d02cbd4e819dU, 0x3db0855e3db7b1c2U,
  0x3cffd7683e3e1b02U, 0x3db626bf3dfef67dU, 0xbd8d36563bca07d5U, 0x3e243f9f3d1bdfbeU,
  0x3d82590dbdb04dcfU, 0xbd2eba1b3bd19991U, 0xbe823235bcf33799U, 0xbdf29a793d7a9ba3U,
  0x3d9b0daa3d1d6600U, 0xbd1991d93d6fceaeU, 0xbdafe19b3db4c5ecU, 0xbdbdbc75bcc34125U,
  0x3d78854d3e113579U, 0xbd0646b13caa6cf5U, 0xbd9c8b08bd1d17d7U, 0xbd9e4219bd59bcf9U,
  0x3d0c7e853c0a1c8aU, 0x3e7af6a7be66bca6U, 0xbc30c415be113d16U, 0x3ba1f8c53d596515U,
  0x3dca07cfbd534b41U, 0x3d0f7ddebc80370cU, 0xbcbd97ee3e0c39ddU, 0xbcc660a1bdb229c8U,
  0xbde77ebc3d1966f7U, 0x3d80c9053d92c0d5U, 0xbd07de24bc1baafdU, 0xbd27b16f3e2846cfU,
  0xbe0f0900bb53a08bU, 0x3c6202673d56ef82U, 0x3b67dcc83e5de737U, 0x3ae23ffe3d5bf324U,
  0x3dadecc93e4ec288U, 0xbdf216bbbe48a560U, 0xbdf2258ebd055380U, 0x3dcebdad3d9ecd73U,
  0x3d2b0260bd597ee8U, 0xbd5fe1303d920d28U, 0xbde09b5b3c33d5c6U, 0x3d5739e1bd2f5cf2U,
  0xbdeed44dbd8afb9bU, 0xbd7e031a3db94e00U, 0x3d3d9a7a3d99b1c9U, 0xbe0cb721bad7b858U,
  0x3e1ea4423d2ab6c2U, 0x3d84dfc3bd0fdf85U, 0xbce09ba73d72aaeaU, 0xbd6e6762bd701581U,
  0x3d94227ebe1383ffU, 0x3ddb51d4be264764U, 0x3ca4891b3db08e71U, 0x3e1fd3c8bbe39606U,
  0x3d0cae583de1be53U, 0x3da926363d8f1719U, 0x3d973f063d5d3d80U, 0xbdb913783dcac1a4U,
  0xbd255b693d9b32ebU, 0x3daa571cbd89ae8cU, 0xbc86a6443ceea701U, 0xbb22c1e3bd32313cU,
  0x3d96065fbda5dc40U, 0xbd817a0d3c397573U, 0x3deb18eebdcf1903U, 0x3c953c6e394d8494U,
  0x3d3fb51f3d4aa6f1U, 0xbc181f643de10cddU, 0x3c28a3423ccdc2c5U, 0xbd395db2bca12a8eU,
  0x3dfe87a9bceafaffU, 0x3d03c5ecbd93f8abU, 0xbd1e06743d8791d5U, 0x3d5e15c13d14af3dU,
  0x3de14daf3c2e017dU, 0xbea159a6bd2450dcU, 0xbd99b8a93d7f1074U, 0xbe05a636bd833928U,
  0xbda9b0b43db3701fU, 0x3d0698cb3de0451aU, 0x3e8b858abdb6ff32U, 0xbd818f6abc972ad1U,
  0x3c290fed3e217c72U, 0xbd331a063ae88eacU, 0xbe19a9f53d1f77ebU, 0xbd7efe07be20b847U,
  0x3d1c36c73e9b04e7U, 0x3cf40950bd0609d2U, 0x3e116f613cc9bd6eU, 0xbd9c336bbceae79dU,
  0x3d0c34683c6cbc01U, 0xbe04fce53d65783fU, 0xbe30ee853d39ef6cU, 0xbe1c09973df6e5a7U,
  0x3ded0cb73d5474b1U, 0xb9b5f8333e026869U, 0x3d1ec849bdaf6e6dU, 0xbd57b5e43bdb883dU,
  0x3c3fed4e3dc8d16fU, 0x3e845fa2bcbda8baU, 0x3d128169bcf2d1b9U, 0xbe702bfa3e1c8118U,
  0x3cb40f46bb0b6fc2U, 0xbe12c347bdbeac06U, 0x3dcbb75e3da4fd5cU, 0x3e0d6b71bd992a39U,
  0x3e43bee8bd7080feU, 0xbd5002bebd0d4af3U, 0x3d60d1b5bc787011U, 0xbdfd6397be71889aU,
  0xbe08d962bd643f39U, 0xbda6875bbc846aacU, 0x3d45c01e3d2cc588U, 0x3ce3c0b23b9b6614U,
  0x3d5b22c2bcff4568U, 0x3bb10a00bdb282b2U, 0xbde94e71bda7175aU, 0xbd7fa0c1bddf55f3U,
  0xbdf71c183d77d2a8U, 0xbccac5d13e10ccedU, 0xbccb17dd3d2eaff7U, 0xbcc6dc36bd7e19d0U,
  0x3d98b0a33d2ed5c4U, 0x3e05019f3d431897U, 0x3e076677bdad12ddU, 0x3d01bfb23d730a64U,
  0xbe0799463ca2cf5bU, 0xbd6e2bec3dab1812U, 0x3d72be273be6becbU, 0x38f98fb73dc612b2U,
  0xbcd5db44be4dbed3U, 0x3dbd8deb3c540a58U, 0xbe2c7e8ebce5e04fU, 0xbcb5b9ea3d2e5230U,
  0xbcda8d55bd3c01b1U, 0x3d67408a3c9ef33eU, 0xbaccbc84be077ce4U, 0xbbf349143d832c92U,
  0x3d1882cabc990d16U, 0xbdc038b7bd16a664U, 0xbbd56791bdaf2451U, 0xbd0b9f25bd45c0f0U,
  0x3d8604fdbd970ff8U, 0x3cba4ea9be3b23c4U, 0x3d7f7fbc3da2fd96U, 0x3db8653ebe788ceaU,
  0x3e25ebe83d53add0U, 0xbac5f4363e9aacbdU, 0x3df042e7bde5de65U, 0x3d1e3fcebc76ab14U,
  0xbe0f1a773c319e4eU, 0xbd4870b83d45aa62U, 0xbd7faa5c3d8af4d4U, 0xbe444f8b3d1e06f1U,
  0xbd9cd8a7be814af3U, 0xbd242828be605ed7U, 0xbe0882aebdc9894cU, 0xbc1d527dbdc18e61U,
  0xbe0d93c83e2a2c75U, 0x3cd86ba4bdac427dU, 0x3db13023bd12f032U, 0x3cab390ebdc0bff2U,
  0x3cbf8492bd1922f8U, 0x3e19f0b3bd833358U, 0xbd1448a63db56f72U, 0xbc9415ec3c42f0f6U,
  0x3d404c06be7c9f7dU, 0x3dfebd91bc3864e9U, 0x3e235ccd3d93b456U, 0x3df855bfbd38f307U,
  0x3d810eab3ded3056U, 0xbcdbe19bbe213348U, 0x3cae0449be7c5b4bU, 0x3bbb5b4e3e383ec8U,
  0xbe56177dbcdf1382U, 0x3c8e7a793e49bbedU, 0xbd2dfda23da3df42U, 0x3d32fcde3cda0077U,
  0xbe1960303c4b4fc0U, 0x3dae8fc0bcd5ac0eU, 0x3d7601bfbce97f68U, 0xbdce6eefbdf12cb2U,
  0xbd0dddeabc9f70d6U, 0xbe49813fbd0c670fU, 0xbccbe9e4bd396459U, 0xbda928083d1ca1c9U,
  0x3e18b36fbdbdb9bbU, 0x3e7c0d313d26ba34U, 0xbda0941e3dfd6794U, 0x3bab36373daf582cU,
  0x3d6b6b033db21793U, 0x3dee1ce73d053be2U, 0xbd808d743d15cd79U, 0x3d36ce2cbc235452U,
  0x3c46d3e0bdc306bdU, 0xbe146f8a3d8695f3U, 0xbe216bd73c96a168U, 0x3cfea151bc34bfeaU,
  0xbc5326623d9762f1U, 0x3d84eec0bd8a1a7cU, 0xbd4177f1bcf07fecU, 0xbd233f073d8d34d6U,
  0xbd8667b83cd66bdfU, 0xbd54a5b9bda941d1U, 0xbc5487b73d33acf8U, 0xbcc76eddbdcc3cceU,
  0x3d2da5033d4638cdU, 0xbdbcb3a9bd9ef3c6U, 0xbdf7518d3d08302bU, 0x3d5148dd3cd0bae0U,
  0x3cf81eb03e14b224U, 0xbe0cd480bd8ba379U, 0x3e33cef23e07f72cU, 0xbd8678a23e19b43dU,
  0x3c4e262f3a701467U, 0xbc754d6dbe7361d4U, 0x3bdb5aaebc4865cdU, 0xbc9176df3c73e0ecU,
  0xbc0958c6bda3a65fU, 0x3d927f80bcf17042U, 0x3d035843bd283903U, 0x3de699b43c24430eU,
  0x3d249d94bcc98518U, 0x3e0b96383ce5a6bbU, 0xbdd9ab4dbd0c3889U, 0xbd73d2debc9c193bU,
  0x3c92e0003e552bbcU, 0xbe7b1c2f3ca32434U, 0xbcc142793da95e86U, 0x3c3b707fbba1c032U,
  0xbd9b6da63da5e093U, 0xbe4b8782bc768dd9U, 0x3e12b5ecba23a886U, 0x3e1e2745be64589eU,
  0x3d9fb5fd3de20c63U, 0xbd034fe2bcbdec93U, 0xbe40bc1ebbb4b4c8U, 0xbb0f3d1fbcb17b4bU,
  0xbd38f4e53cc24e2cU, 0xbd8248fd3d21e83aU, 0xbcbdafdf3b5c7491U, 0x3cedee66b808b18fU,
  0x3d54963bbd642b33U, 0x3c66b2aabe1341bcU, 0xbd7dd654bd7a419bU, 0xbe606180bd25a13fU,
  0x3de291c0bce8dc36U, 0xbdee43613c9cf6c6U, 0xbc0bdf20bd898290U, 0xbd2ddb8a3cbb2884U,
  0xbd8943153d6a87e1U, 0x3c7efedf3d115370U, 0xbc3cdf2d3dfb10ecU, 0x3cea0882bdd4b6ddU,
  0x3d33ae5b3da24f22U, 0xbcaae3933b281a62U, 0x3d0a1a7f3d824b05U, 0x3e71b0c8bd71646cU,
  0xbe6837bd3d700107U, 0x3d4e6022bdfbaaacU, 0x3dcd781d3dabc994U, 0x3e1aa85b3d856460U,
  0xbd49b8083c359e05U, 0x3c78c3cb3e0cf8ccU, 0xbdb15c5ebdf7343dU, 0xbd6f439bbed3b9aeU,
  0xbd219c05bd05a59bU, 0xbd8df4b53c8438ddU, 0x3dd6b6d33d9e2835U, 0x3d1982d1bd08a16fU,
  0x3d769facbdb14296U, 0x3bd9e40bbd850d4bU, 0x3d5bb21c3cdf09f0U, 0xbdbd0c4d3bb8fb01U,
  0x3e84b27d3d896da9U, 0x3d546da63c1e095dU, 0xbd547ad0bca708f3U, 0xbbe27290bc0ecac3U,
  0x3de83f123d9e067bU, 0xbda8d4603d7b537fU, 0xbb0ee0003d1c1910U, 0xbd1563023e5cec97U,
  0xbd3b179bbda29cbdU, 0x3f0bacdcbdcbffe2U, 0x3f7dd2403f8e7601U, 0xbe6b1ba7bf8db0adU,
  0xbf14bc3cbf948e7bU, 0x3f3f2be8bf2c210aU, 0xbf9f17c3be83f66aU, 0xbeb3baba3ee27e22U,
  0x3f0b347fbddbfa59U, 0xbebe37463cd2d2fbU, 0xbc9049e8bede73edU, 0xbe517061bf01aa4dU,
  0xbeada430bc5de969U, 0xbd1e4c91beceab7bU, 0xbf6c415b3fb76755U, 0x3e97dd2c3fb4c8bbU,
  0x3f31d564bee5338eU, 0x3eb030bcbfa62704U, 0xbf91f75abdd00732U, 0xbeec1866bef7f108U,
  0xbf29465f3e80aa00U, 0x3ef7f3cebeb170d0U, 0xbecd1a60be9d4fc5U, 0x3f57f00abebef487U,
  0xbef27c5ebf5446b3U, 0xbf2092753f4de9c2U, 0x3f05e981bf49e8d2U, 0x3e7486b5be9a619fU,
  0xbfd542cd3e15de3eU, 0xbd3b9edbbd0b2030U, 0xbe3dc796bf457d58U, 0xbf0ce1903e375a43U,
  0xbf0a82cb3fa0d69aU, 0xbf504620bf4e9f17U, 0x3d752fc0bf857694U, 0x3e5bb237be56df8bU,
  0x3e8d977abf47d090U, 0xbfa667753ca40b21U, 0x3fa65b903eca94f0U, 0xbf26feaa3c844f26U,
  0xbec4d2af3e8fd03cU, 0x3e97216abf25cbe5U, 0xbf4e9f093dba162eU, 0xbe620d773f809aecU,
  0xbf2de6ccbf8bdb66U, 0x3de795a43ecaa3dfU, 0x3f0180043f099d53U, 0x3f01a4913f080607U,
  0xbe1822463d95f330U, 0xbe6ab0913d9d03c7U, 0xbcd1b691bf2551bdU, 0xbec889f7bef40be4U,
  0xbf1b4b603d910019U, 0xbe8787ea3c94dcdaU, 0xbdac403a3e0281daU, 0x3ec17421bbd94fdeU,
  0xbe826a443f0855b1U, 0x3f717a1b3f83d6caU, 0xbdb1d7e23e14af22U, 0x3e81599ebed56631U,
  0xbfd47714be94194aU, 0xbe2e07513ee30595U, 0xbdf8e23ebb9be63eU, 0x3e373d0ebf01099fU,
  0xbf286ee73cac1191U, 0xbe82e6fdbf399077U, 0xbe6f1d66bc81f425U, 0xbf92d377bd889f9cU,
  0xbf24cd70bf8cb8eaU, 0x3f6abf52bdb0f788U, 0x3eee2a9cbf387274U, 0xbe804b993fc2ab11U,
  0x3c04c34c3ddcde59U, 0xbedcd48b3e903153U, 0x3eeaee663ff27e9eU, 0xbf33b6ffbef70705U,
  0xbed5bd35bf269a88U, 0xbf08ab07bfb123e3U, 0x3e6c04d2bd0d4ae3U, 0xbd05a4623c867f4dU,
  0x3d7f0cf23ef35985U, 0xbc9a4ad93d9ae857U, 0xbcfa67cf3d3cb212U, 0x3ce2b5c33ead18d7U,
  0x3fd8b671be16fa4aU, 0x3ef20553bb217689U, 0x3ec717273f69d012U, 0xbf20b3f33dc729b4U,
  0xbe9a3becbf62451fU, 0xbf94d340beed22a1U, 0xbf959545be43a9a8U, 0xbe14f408bf17d0c0U,
  0x3e8164fe3e7fe1d6U, 0x3ee23d25bea50330U, 0x3ec471623d0bdfdeU, 0x3dfaee0c3efecc8fU,
  0x3ea9a98e3e5186cdU, 0x3e5ebf313ec26386U, 0x3d8572d73e3ae80dU, 0x3ebd9087be1048f2U,
  0x3f393fa53e94be06U, 0xbe7d5b463ea27da0U, 0xbfb47c47bea45352U, 0x3f538b7cbf9fb584U,
  0x3ebf775e3ef87b95U, 0x3ea662213e5d29a7U, 0xbeaabf083e8b689cU, 0x3f104dab3e5eb21fU,
  0x3f8930f63e37462dU, 0xbde81e7f3f261290U, 0x3f0649dc3d59e41cU, 0x3d265030bdff710aU,
  0xbe93a7583eff0431U, 0x3c4176c1beef833dU, 0xbee58dccbd7feb60U, 0xbe71c5acbebeac6dU,
  0xbe2fee3dbf13f81aU, 0xbe041130be61281eU, 0xbdfae9133ebb2891U, 0x3f7682383e06165aU,
  0xbe871d7a3e0e8b1fU, 0xbe28276f3f5f3f87U, 0x3f8e5531bfbca951U, 0xbf0548e53efd498fU,
  0x3e95016fbf76cc92U, 0xbfa268933fd9a900U, 0x3e6dcaa33eac8e4bU, 0x3c2f21c3bf4ce51bU,
  0xbf817a913e8e3a04U, 0xbf2379413e395512U, 0x3e2f7334bd9cdd69U, 0x3ee3d73b3fadec72U,
  0x3f692c29bebce0c5U, 0x3df1507a3e24f706U, 0x3e1f658a3e8441b4U, 0xbf0836213e98e768U,
  0x3d92864b3d4dfd1bU, 0x3edf823ebf93edecU, 0x3f928b203f38d27eU, 0xbf8aa2373e849acdU,
  0x3f822dd63ffdf2eeU, 0xbed7b8bd3db203ccU, 0x3ee23f24bef0a875U, 0x3e8c85953d96d413U,
  0xbeddfc3e3e9b089cU, 0x3db57d95bf4fcfd1U, 0xbed79595bf7ddea6U, 0x3d38d4053e7e17b0U,
  0x3fdcffa53e06742eU, 0x3f7b0d4a3f8b33f1U, 0xc004821e3e47681fU, 0xbdc530e63e15286aU,
  0xbea193e4bd00593dU, 0x3c644852be72d43cU, 0x3e0a246e3fa2ef58U, 0x3fafd318bee25a69U,
  0x3df3fd07bd4592e0U, 0xbc32587b3f064bedU, 0xbe4e2ba5becee8f1U, 0xbd381e5f3fef2fedU,
  0xbdddf08dbf911b3fU, 0x3f3ae4913fd5d872U, 0x3e3ee33f3e919fd5U, 0x3f234bc2be51e074U,
  0xbe41050c3f0a2fdcU, 0x3db8664d3e9ffc0eU, 0x3e2784de3e5a3bb1U, 0x3e8a738e3f3fdec7U,
  0x3f1ed3e13e428840U, 0xbdd2ff343eaa6a52U, 0xbbc96049be2a3127U, 0xbf369802be152c8eU,
  0xbd8ff6e03e74744fU, 0x3f51162a3ff2db5dU, 0xbd7d9a013e358372U, 0x3e967755bd38b60cU,
  0x3e4fa2d9bd8605b7U, 0x3f81bc903f03179cU, 0xbcb5f6aebeb39b57U, 0x3eb5e2923f70b74cU,
  0x3d516804be95d7d4U, 0xbebf94cbbcba9153U, 0x3f5aa11ebeb7a9bbU, 0x3f7a7edebe059f53U,
  0x3f2303293fa56d8cU, 0x3f0db3363fb6bd1cU, 0x3e9d764bbe32f9d1U, 0xbef8e728bf2d14a4U,
  0xbf90b1f9bf60ec91U, 0x3f15c37c400bb06aU, 0xbebd4cecbf0a17d7U, 0x3f09a9b7bfbf6848U,
  0xbe83f7cfbf26097aU, 0x3f47a2c4bd2fad59U, 0xbf751a583f29841aU, 0x3f27bb753e1ce989U,
  0x3e5c0d0dbf49c967U, 0xbf3937f5bd9ab2e6U, 0xbcfa1f1fbe0d6895U, 0xbee57fb03de0d76aU,
  0x3d6c2556bfb38d6eU, 0xbf0cbd80bda416f5U, 0xbebcaabfbd0d6ff9U, 0xbbd41d613ee36347U,
  0x3e7bfc8f3d011513U, 0xbc4936e33f178f85U, 0x3f07e8413fcde43fU, 0x3f3fd89a3edf4fdfU,
  0xbe6c883c3eb306c2U, 0x3ec075ae3f811dd9U, 0xbf9550babf5f5f4bU, 0xbeb6b047beaded4bU,
  0x3e8aed1c3f1828c3U, 0xbecb0477bf6d9e7dU, 0x3e50070d3f627b9eU, 0x3f6a94113dd00e41U,
  0xbe29ffe93e8aad4cU, 0x3f1ca2febf79bfdeU, 0x3fbaba2bbea81176U, 0x3d3b12e6bf23ca53U,
  0xc006c3763fd3ece2U, 0x3f0e5067beb68fd1U, 0x3f0fcd403eebedbdU, 0x3f34a4523c2923bfU,
  0xbd937fc03ee7a59eU, 0x3fb69d2e3e641e3eU, 0xbd84dfc03f240e0eU, 0xbf07dbd9bbbed2dbU,
  0x3e63e18fbe8a586fU, 0xbe84d754bd9617c0U, 0x3f118d7f3f640445U, 0x3d9fb23abe52d319U,
  0xbda5e67f3f4b46e9U, 0x3c0fc9803e421e4cU, 0xbf8dd1b8bf0aaad6U, 0x3fb400ddbf98c37fU,
  0x3f340db83e4f3967U, 0xbf873def3e4a7738U, 0xbd6e1aafbe677049U, 0xbf497462bf473fa6U,
  0xbdcd709b3ecdf01fU, 0x3e481530bf823311U, 0x3edbbca03f8c1c90U, 0xbf455a4e3e8e578dU,
  0xbd73faf13d3f6a5cU, 0xbec70fecc004d63aU, 0x3e969b1d3ed42958U, 0x3e6d2c393e8269d2U,
  0x3e46e14bbef762c1U, 0xbf5d286b3ee86cd9U, 0xbf5e830e3f52e552U, 0x3f118bdcbfa7e417U,
  0xbf70309dbf12d50bU, 0x3e8a8fdebf321bd4U, 0xbead0b84be49369bU, 0x3f7eaa673f241387U,
  0xbf2b5c093ea9316aU, 0x3f4c0002bf40dd44U, 0xbebb9d63bf933141U, 0xbef01c923f365ba4U,
  0x3f7b0ee43f4bf378U, 0xbdcab7763d95fa75U, 0x3a5ec7eabe0a6d59U, 0xbe2f5fc9bf140ea0U,
  0xbf0f7dadbe7915a8U, 0xbe52c59ebe864796U, 0x3de9fa273ef35c9eU, 0x3f1841d33f071f17U,
  0xbd3a88d33f8a1238U, 0x3da7f71dbcf9296aU, 0x3cc204c33da132b6U, 0xbdb91b253e9b177fU,
  0xbeaba23bbeefebdfU, 0xbfbaf0e7bf133ca0U, 0x3fc4e42abeacf7bcU, 0xbe7fadda3f14c28cU,
  0x3cd1b05d3ede0dc3U, 0x3e01c721be137aa8U, 0x3df8429d3e0d6a14U, 0xbf8260a4bc261723U,
  0xbfca3ceebd75fc0dU, 0x3f730cf83f4b37dcU, 0x3f677076bf498880U, 0x3e5d896c3db4e749U,
  0xbf17d9613ede2a8dU, 0x3f0a9f5fbf0133f7U, 0xbe25c1adbc40e0bcU, 0x3fe62c643e58f971U,
  0x3e2fe0153c72fb14U, 0xbdd803fc3f2ffc90U, 0x3df96d7d3f5100d2U, 0x3f7996093ea7a82cU,
  0x3d8874e33da163f0U, 0xbe99801f3eed715fU, 0x3f0772343dfe3b5fU, 0x3e9133553ee64755U,
  0xbd0ba3583d8a87d8U, 0xbe0ed24c3fb9b0f9U, 0xbf6b5a3f3f12ce44U, 0x3ed0bfbf3dd12fefU,
  0xbd45bff23e9035c8U, 0xbd86ec12bd4e0ea4U, 0x3ef5225e3ddee13eU, 0x3e2708453f586b4bU,
  0xbe194fbc3e9859f6U, 0x3dce6118be39dfa5U, 0xbd3357f83ed30c34U, 0xbd60aa8bbe11ed38U,
  0x3d308d9a3eb006deU, 0x3d059a3abd805a9aU, 0x3cfe55b8bf0d9747U, 0x3e1c70143dc09854U,
  0xbdcbf0613e9a6e40U, 0x3ec3c3be3e346fffU, 0x3d6de16bbcb2432aU, 0x3d1505143f7e216cU,
  0x3daf99e8bc408ba4U, 0x3f0039e13e8c1d9dU, 0x3e5b8100bdb539eaU, 0x3ea89c1b3e1c6aa6U,
  0xbcc62e9fbc3a4dceU, 0x3c0b849abd329751U, 0x3cd38d69bce39dacU, 0x3cfe62dfbe0c04ddU,
  0x3d2ffc683da49333U, 0x3cf5d253bc4bcf1eU, 0x3c1da036be014f8dU, 0xbdc6db1f3d9535e2U,
  0x3d829445be08cec9U, 0xbdbc7ad73e178bd9U, 0xbd96e0983ba3e1beU, 0x3d1bf163bdcacb7dU,
  0x3cc2db03bd1c00b8U, 0xbdd0b1b4bd1c230cU, 0x3d72720d3c465622U, 0xbd42c5a23d1b39aaU,
  0xbc83559fbe1fbe9fU, 0xbd7b0e673dd025e1U, 0xbd41fc63bd3a93a5U, 0x3e0bc6efbd7b3709U,
  0x3c00a1f83d4bba87U, 0xbe1992493c729c07U, 0xbde265bdbbf9bc74U, 0x3d31b1fcbd4866d8U,
  0xbddb0cfbbd9e5b4bU, 0x3d93915c3dd2a73cU, 0x3cab119dbd7167cbU, 0xbc89f9563e9d5df5U,
  0xbd173ce73ba79d89U, 0xbd461b0a3d8cf33aU, 0xbde33a2dbdb41f44U, 0x3c86ca61bde10e33U,
  0xbc17e2443d59dd87U, 0xbd269f6ebd8d6d9bU, 0x3d21a378bd9f124bU, 0xbcb43eaabe08beebU,
  0x3ddf780fbd69cb21U, 0x3c0f746d3e104253U, 0x3e4a4c0dbe156ae2U, 0x3c4e1f22bd33bbd0U,
  0x3ca09362bd5331e8U, 0xbca0681d3df9d1bdU, 0xbdddf34c3d1ca2b3U, 0x3c1757ffbd9385fcU,
  0xbe0a2995bd08a205U, 0xbdbfdce9bcd6f880U, 0xbe579551bdec42c3U, 0xbd885da43de53a3dU,
  0xbc61892cbe35aa3bU, 0x3dacbcff3c9ef185U, 0x3d20539cbcf71567U, 0x3d29c5fcbbc44ecbU,
  0xbbb69aa53e4a2586U, 0xbd1d261cbce337a5U, 0xbd08e0a83de7aa51U, 0xbd8a4453be0194afU,
  0x3d7607a63b087fd8U, 0x3e1f1f41bd1d5b61U, 0xbda1f915ba6ead3eU, 0xbd13f4673d6014faU,
  0xbdf6b521bd57c76aU, 0xbce8a2a93d63df9cU, 0xbe0de55bbc9188dcU, 0x39d02acebc77d697U,
  0x3d6bd0673d3814deU, 0xbe19ea1f3de70562U, 0x3cc532d1bd97a65aU, 0x3d22bfef3d38e7acU,
  0x3e3604323be25fbaU, 0x3df03a7ebe3dcfaeU, 0x3cd152533ddc7a41U, 0x3d0c78b3bc087653U,
  0x3d8b6a1d3e360ad9U, 0x3d968c7dbd3c87b1U, 0x3c3ce04a3e1e3a3aU, 0xbd980705bdd23b8eU,
  0xbd91f5a63bb865fbU, 0x3d3bbd693dc64a4fU, 0x3dcbaf733cfef6a2U, 0x3e0ee9073cc80c59U,
  0xbb53f596bd63f776U, 0x3d8de948bbfb97eeU, 0x3dc7902439079b4eU, 0xbdd7e4833cad89dfU,
  0x3d6375a1bc703510U, 0x3d2613983d8d5cc1U, 0x3c54823b3da5e3e7U, 0xbde767793dda3c89U,
  0x3ddd11803d94a8b9U, 0xbe227aebbcdd9706U, 0x3dd65bb9be7ea04dU, 0xbced36b73c0d55e5U,
  0xbce3affb3d023587U, 0xbe2eb2d13dab517dU, 0x3d8e5d493df5e271U, 0xbdf716443da18700U,
  0x3d3d8595be8f9f99U, 0xbcec7d733e24cc22U, 0xbc3691d2be19eb17U, 0xbd8aab8d3bfa27f7U,
  0x3d38042f3db2ed72U, 0xbac98039bdb1b8a5U, 0x3ce1aa613dda43f5U, 0x3da58f19bd157a40U,
  0x3d8092e73d022048U, 0x3d9bfe31bdb20a5fU, 0x3bff4fc43e1c9e41U, 0x3d9f31f63dcec2a6U,
  0xbe0e73b6bd26a1b9U, 0x3e3e3fbc3cb8c27aU, 0xbd91cebabdd6907aU, 0xbe1a250b3b679055U,
  0xbe1f576ebd568c52U, 0x3e184b79bd539186U, 0x3e22fc013deae801U, 0x3cf40fb13e3708b9U,
  0x3c4da3c73d6c248dU, 0xbc851da83d470398U, 0xbc5172da3d1db999U, 0xbd4cf0fc3ce516b4U,
  0x3cd3166a3e095245U, 0xbdfdf1353dbcddcdU, 0x3da13cebbd074489U, 0xbd3e8de9bb9a97d4U,
  0x3db020433dea69f6U, 0x3de236ddbd39ad63U, 0xbd57650c3dbd48a4U, 0x3d8578b13e6d9daaU,
  0xbda43ec5bdc6402eU, 0x3d5a0c3e3d891447U, 0xbd919164bd3f6770U, 0x3c0ea687bd8cbd09U,
  0x3caad7da3c51b10eU, 0x3d47b502bdb7bb6dU, 0x3ccf8f46bd4d6035U, 0xbdee4dedbe300fa1U,
  0xbdc57f143e0ac428U, 0xbd225ad93d058d79U, 0x3bca6f323daa7293U, 0x3e0da63d3da6070eU,
  0x3dae46ea3e5ec36cU, 0x3eba8fe43c89d63bU, 0x3d3d99d9be2d8288U, 0x3d9a83edbd54a67dU,
  0xbd5847243de3426cU, 0x3e117b1bbd0c085dU, 0xbd8e35b6bd281723U, 0x3e1afc51bd85c7fbU,
  0xbc25680d3d41a745U, 0xbdbed3c03ea9f405U, 0xbdc79d33bcddf81fU, 0xbc90c920ba09dc80U,
  0x3e49d2ea3e1c9462U, 0xbde7f0653cf36d05U, 0x3e6da691bdf84857U, 0x3d8af61e3d62d6e3U,
  0x3d258c8ebd522a19U, 0xbdbbac49bd9786a9U, 0xbd45995c3e522d41U, 0x3dcb8cc83e3fb078U,
  0x3d342ab83d40b3e2U, 0xbd42d2273dfaa10aU, 0x3d573afc3dd77856U, 0x3dfc6411bd8e4c20U,
  0xbdaed5303cd317a4U, 0x3db47b86be3c0ab3U, 0xbabdd9403dc08cc5U, 0xbb353ae4bc440ad8U,
  0x3e3eb8af3dd4a142U, 0x3b68c2e8bbc45111U, 0x3dad227b3bb505b8U, 0x3cfffb5ebcc56a4bU,
  0xbd025a0f3cab6ff0U, 0xbda85e68be2a7443U, 0x3df81d8bbd7352a3U, 0x3cd1c0a6bd2394aeU,
  0x3cfcc96c3e4d9802U, 0x3d3ce4e53d197d5fU, 0xbc3a12a33dff85b4U, 0x3d0a65253d93fe41U,
  0x3d863dbebd0c4281U, 0xbc54fac33e2d94abU, 0x3d4ff4983c397b8eU, 0x3d05f1f03c791c34U,
  0xbd9c783abd466b4fU, 0x3d110103be073c60U, 0xbdd496fd3d45e5a1U, 0x3e2a64ac3dc2c4f8U,
  0xbc2fd4aa3ce2441aU, 0x3cb8be31bde57babU, 0x3d892f05bcb75d6cU, 0x3d81b623be2447c9U,
  0xbd6b4df43c6c76a8U, 0xbc9242713e07fe62U, 0x3dbd405ebe576077U, 0x3cde0944bcfa9729U,
  0x3d3bca4ebd646c01U, 0x3e377464bcfcbdd0U, 0xbdd123e33d326374U, 0xbd2e7b2abd454efeU,
  0x3e7250f6bdb97f43U, 0x3d06d8e7bd79dd71U, 0x3de17e42bb4e719eU, 0x3e043e8c3c8397acU,
  0xbd3c995abdc09ca9U, 0x3d08061bbda40e1fU, 0x3e5b23efbdb62beeU, 0x3d29eefdbe9064d9U,
  0x3dd133533b5204b6U, 0x3dc524893b2bf2daU, 0xbdd8116d3e2b2771U, 0x3d0562853dd8e78eU,
  0x3dbe7ccdbb56a4bbU, 0x3e06440d3e0979aaU, 0x3d5adf66bd7858eeU, 0xbd806d7e3d357444U,
  0xbc6db46c3d752c4bU, 0xbcf69957bd6bed80U, 0xbd2bc788bd53b8b3U, 0x3d8486fbbdbfd93aU,
  0x3e1e38253bba50cbU, 0x3cc62e2abdd07339U, 0xbde81fc83dd64e35U, 0xbcc444bebe1bc3cfU,
  0x3d303d5c3c584242U, 0x3d9f46263dcbbacfU, 0xbd0d1b7dbd81633fU, 0xbb8af29ebe4f05eeU,
  0x3db4f8e53d9dc62eU, 0xbd28d0c43e44d95dU, 0x3d981bc73cd9f6cfU, 0x3cd61b193e3ad186U,
  0x3e0b89e53c1329d7U, 0xbdde25edbd37db45U, 0x3d8c7370bdbd8626U, 0xbe2e54c53c81d096U,
  0x3d2450f63e559d7eU, 0x3da21dfbbd7f5673U, 0x3d322932bdae5ef4U, 0x3d1232d93da4b18fU,
  0x3d560d6f3dcb0c22U, 0x3da612a93d90c66dU, 0xbd766fbd3e06bdddU, 0x3c7962b1bd7631d9U,
  0xbdf9fb663ce6bb5fU, 0x3e2877bfbe69b600U, 0xbc8412543e0fe5bcU, 0x3d3f14a9bc8aa8a8U,
  0xbc5174c9bd5f1f62U, 0xbdc22d653d8cc357U, 0x3e29722d3c7a0a97U, 0x3e3b8bde3d33108fU,
  0x3e17ab2cbd8f0ecaU, 0xbd3593a338c43182U, 0x3c7dbf723ced4893U, 0x3d3309173cb268c6U,
  0xbd789a76be072f2dU, 0x3d1581f73e1fc36dU, 0x3e03e676bd3b10c3U, 0xbc02c9f13cbfc1b1U,
  0x3dc3b3063ccee6caU, 0x3cbf605fbd7e668fU, 0x3db209aa3bcd1123U, 0x3d8369d93dafc056U,
  0x3e07e87ebde1fcc7U, 0x3e08ddb5bd321cd0U, 0x3e11770ebe432795U, 0x3dd7c08f3d47b2acU,
  0x3df989953e12f52fU, 0xbe10a20e3e104ac8U, 0x3dcf455dbda966baU, 0xbdd7243dbd419a35U,
  0x3d811721bc8534f1U, 0xbc8793833e11045aU, 0x3c6499b43d495438U, 0xbd6b08f43e320abdU,
  0x3d9a2f623e1c0616U, 0xbd7c58733dc327f7U, 0xbd735f213d468137U, 0x3d5634a83dd32532U,
  0xbc4847dd3d3444faU, 0x3d37ea6ebe1c17f5U, 0x3e1a6c62bd94cbdfU, 0x3da759debd2326fbU,
  0xbb9d51543e107fa4U, 0xbc9b282b3d8a2b3aU, 0xbcd67ffc3da51052U, 0x3dd6b3d63cc26b99U,
  0x3e009705bdaa2c96U, 0xbd891087bdde06e8U, 0xbcd13ae9bb3bf514U, 0x3aa933eb3e372fb9U,
  0xbdd3ae68bbd889d8U, 0xbd28d591bcd08d40U, 0x3c0ec3bd3de5448eU, 0x3daeccbbbd5a519dU,
  0xbd854d813e159cfaU, 0x3d51eb0bbe1eed9fU, 0xbd8a27df3d81996cU, 0x3d07c6943e0575b4U,
  0xbdf5a3e9bd96d47fU, 0x3d84ef273daa16d5U, 0xbd9b6410bceb0b9bU, 0x3c6564c7bc99528cU,
  0xbaec9e7f3e18dbfcU, 0x3d0a2a00bd042027U, 0x3d064775bd3fc49bU, 0xbe12788b3d7c0c34U,
  0xbcceade5bda99280U, 0x3e2f0aecbdbe9190U, 0x3d2da770bd44cc9fU, 0xbc1b96173cd67ff0U,
  0x3dd9cd8e3d7a10c8U, 0xbd798a47bca64236U, 0xbd0f25823d8d3d9eU, 0xbda502dcbe8ff58bU,
  0xbd4250113d08cfebU, 0x3d3571de3d3123ceU, 0x3e0a57323cc59becU, 0xbca46d923db92f48U,
  0x3d8724633d830abfU, 0xbd01659e3dc819deU, 0xb9ae054d3e23e7a6U, 0x3df40d3d3c8eea1eU,
  0xbd7eb962b9a8b601U, 0xbe4556843dd09d09U, 0x3d16fda8bd3b807cU, 0xbc21f98c3c9973e8U,
  0xbdd2ec013dddd6fdU, 0xbc66fb283deeb448U, 0xbd23902b3da5333fU, 0xbdbe4d31bc90a0ccU,
  0xbdbf7d8b3d3409a9U, 0xbc5c0388be0af486U, 0xbe132921bc896f54U, 0x3cb225b33e51f0a6U,
  0x3d23232b3d98826dU, 0x3d333c6d3cc672faU, 0x3ddb8d49be3fc7a7U, 0xbd432ba3bcbb03a2U,
  0xbc86414abd88062aU, 0xbcabaf9f3b2d187eU, 0xbdac8b3d3d8326e5U, 0x3d8af923bd4e8e31U,
  0x3e033830bdccac8cU, 0xbdc151a13dc23d30U, 0xbbb7f6023d0a7cd5U, 0xbd93ae9c3daaff68U,
  0xbe420828bd742d4fU, 0x3b6ca9a9bdba681fU, 0x3d9c88383d5a0d84U, 0xbca303473de62363U,
  0xbd79e0ee3dc570dbU, 0xbc7458b5bd461903U, 0xbd111757bdeaf257U, 0xbdd92adabdad6b1dU,
  0x3db628113debfcaeU, 0x3bdc61e9be811164U, 0xbd7e4d9cbdde417bU, 0xbd55f6f23d6b8625U,
  0xbc149ccc3e1591ceU, 0xbd2672c93d6a474cU, 0xbd8472acbdcb4950U, 0xbdec4edc3bfd6bffU,
  0x3c364178bdc300f0U, 0x39b16990bd0a658fU, 0x3c32ad8dbd989378U, 0x3da5c9b73df1c026U,
  0xbc4cba17be171f02U, 0x3db60bf23d71db6aU, 0x3dbd48dcbd438359U, 0x3d6b452dbe1ede55U,
  0x3e1242353da2cb38U, 0x3d4b5f16bd832209U, 0xbd09e1b43d150c7aU, 0x3c8fdefabd5c7312U,
  0xbd87b288bd54adc9U, 0xbe3ffa4b3dc89009U, 0x3d0208a0bd3ed663U, 0xbc6144c5bbabe0feU,
  0xbd71f1a6be3d3171U, 0xbdf00b233e5f099cU, 0xbe003791bd283ebbU, 0xbd0389fc3c7f3aa8U,
  0xbd1933d9bdb1987bU, 0x3b6e2be23dae5e70U, 0x3d8596a3be15b1e3U, 0xbd8da6cbbcfbc366U,
  0x3d14c2a23cd11111U, 0x3dd9bbf7bc9be8f1U, 0xbd30c8d3be6f0ecaU, 0x3d00d1ff3e35aae2U,
  0x3e050badbcc4f0a5U, 0xbdc069b7bd065a9fU, 0x3ca3bf97bb3195bcU, 0xbe295882bc3fb148U,
  0x3d0b21c73da10ab2U, 0xbd4d9704bca4aed4U, 0x3e18225bbd6d6a45U, 0xbb949e003c3df67eU,
  0xbe02a281bddca601U, 0x3c779bd23d419012U, 0x3d23ac223e29aa7fU, 0x3da54c8ebccc644fU,
  0x3c1f69d03d376715U, 0x3e0e01993d082759U, 0x3d1221ec3c34a9d3U, 0x3ae98417be26d475U,
  0xbd1c1bc73d0dba8fU, 0x3b0e74d1bc0190aeU, 0x3d61cf6ebcd5df02U, 0x3d051022bcb08c32U,
  0x3e1f4cf03da29b9bU, 0xbdbf8898be5454e2U, 0x3c135136bd4ebd25U, 0x3b3fb3b6bc9ddf42U,
  0x3c205db23be62d59U, 0xbb115c2ebe207170U, 0x3da642fa3be6a815U, 0xbbc136ea3cc8218dU,
  0xbdb49c8ebd5a4260U, 0xbd9478cfbd09eff2U, 0x3c4bc59a3b8d9611U, 0x3da1baf2be1e607fU,
  0xbe1b3b0fbdbd05b2U, 0xbd9066483e083e04U, 0xbdc1fecebd95c593U, 0xbbf2b6863c48d0beU,
  0x3def2522bdaa9370U, 0x3dc198f7bdd90251U, 0x3d078cacbe24b022U, 0x3d43b14d3e312b56U,
  0x3dca59d73e035381U, 0xbd962c443ca43c49U, 0xbdf68ff9bb076ed7U, 0x3d40391abc826063U,
  0xbdad4806bdb1e1fbU, 0x3d8f9056bd50443fU, 0x3ab18c29be019b89U, 0x3de5b3643c66cd42U,
  0x3de944fcbc9dfffdU, 0x3bb38b3bbe1b9e6bU, 0xbd89ba71bd6b996cU, 0xbd5302c1bdce7b12U,
  0xbdd052f33c565042U, 0xbb849d0d3e20cf30U, 0x3c40c842bdf96e05U, 0xbd1e1fe83ddcd268U,
  0x3daff7de3c1dc6e9U, 0x3d58f2bb3e086aeaU, 0x3d8a753fbd80be8dU, 0x3e27a19ebe137c58U,
  0xbd587860bd64492cU, 0xbddc6ef7bd0d8ad3U, 0x3da23b8fbe015711U, 0xbdb98a323d172085U,
  0xbe1b7a51bde20f83U, 0xbd6c51a2bdccbe87U, 0x3e484e98bd89182fU, 0xbd116727bd88506cU,
  0x3c0c9dd03cfb8bd5U, 0x3d8bb259bdd9713fU, 0xbda7f3e3bb931803U, 0xbd3bbf42be990a96U,
  0x3ce5fd033d001f02U, 0x3d5f0e2a3dde350eU, 0x3dc90e883e496e16U, 0x3db9c44e3d54ed1dU,
  0xbd64da5ebe12be42U, 0x3d928b353b7acbd0U, 0xbd68e3703d0d2c82U, 0xbd8829333da80391U,
  0x3c9b2f573e170699U, 0x3d2b3170bda4a7a3U, 0x3d3d5194bd6a06feU, 0xbe364dad3e408dd8U,
  0xbc37176e3cd5959bU, 0xbd2a0e49bce8bec3U, 0x3d84f1bc3c56b567U, 0xbdcb5657bcc551feU,
  0x3dedd9f53df9e7b6U, 0xbd9cd27fbe33972bU, 0xbc88ee7e3d475ab2U, 0x3c0845773ddfcb59U,
  0xbdfccc27399e0a60U, 0xbe37b1fd3c7d2fafU, 0x3db5c98f3dce3f36U, 0x3e39e1f4bdbe8568U,
  0xbe3d74303d0e0ee5U, 0x3d9b77053e0ba395U, 0xbe16b2bc3d119edaU, 0x3dbf5eb1bc84f38eU,
  0x3d06b5aeba262fd6U, 0x3d88551dbe00d95bU, 0xbe337b433dba6dc9U, 0x3da00f2a3d8055feU,
  0x3de35ea73d4ebab0U, 0x3ddb87bd3ca997b3U, 0x3d6d3729be19ad80U, 0x3d40e4843d94320fU,
  0xbd0d05dd3e149a0dU, 0x3d729957bdf28adcU, 0xbdece62b3dd8c3ecU, 0xbdd931a8be2ac980U,
  0xbd8119c3bd1bc6b0U, 0xbc9e9923bdceaf39U, 0xbddb83e83ddc58a9U, 0x3c96879dbd577cb9U,
  0xbdb343a53cb5fb8fU, 0xbb66d3cabd9f93afU, 0x3dec2d063db8f76dU, 0xbde02b853c35cf3cU,
  0x3d35cdc33da6dc04U, 0xbdbe990ebe0ed552U, 0xbd47d9b53e362909U, 0x3e32b5363d73791cU,
  0x3bdb4e88be11e0d7U, 0xbe00c5993da2030cU, 0xbd1ea7bcbdc53cf5U, 0x3d853fa6bd1b7078U,
  0xbde5cd15be0bbfd0U, 0xbdb471df3e803571U, 0xbdbcefffbc396d56U, 0xbd6bffe1be263564U,
  0xbdbbdf8abd9bf7f9U, 0xbd17af42be028863U, 0xbd0b94843e0479c0U, 0x3e5d236c3cb5a48eU,
  0xbd582cf93e09a954U, 0xbe0fe8cabb855a3cU, 0xbda75dc5bdccb0a4U, 0xbbb24426bdd32dffU,
  0xbe104884bca9fbc7U, 0x3debb647bddde6a2U, 0xbcc0b73dbdf26dedU, 0xbc8627a0bdfaff30U,
  0x3e1d1af1bda1d49aU, 0x3c053cb3bdb56cd7U, 0xbdc60c5ebd09fa8dU, 0xbc20c2e23d8e3a8cU,
  0xbddbb0e4bdf0656dU, 0xbe0e3e04be11b6bbU, 0x3e40dfc0bdc6d907U, 0xbe42902f3d779e5aU,
  0x3d8818ea3c06b260U, 0xbdad1850bde00bbcU, 0x3cb106283e31376eU, 0x3e05ea0b3d4a2997U,
  0x3ad9d0d8bdc8ce1fU, 0xbdf9ade43dab5279U, 0x3b67498cbe1370e9U, 0x3d18e27bbc03e0f2U,
  0xbddae862bdfe7570U, 0xbda0b5373e6ae14aU, 0xbd90c448bc86c7e3U, 0xbdb4fe49bdc5239dU,
  0x3d66a634bde8c099U, 0xbc9d20abbda24f02U, 0xbd0d9ee23dcfddd7U, 0x3e2d9a4d3da23b69U,
  0xbac4f0193dc17178U, 0xbdeca4f83c252972U, 0xbdc70245bd9ae836U, 0x3d754ed2bd9ec3eeU,
  0xbc3b4675bd566a83U, 0x3df180a6bde25297U, 0xbd2afb7abe1e2036U, 0x3dab3c91bdc78758U,
  0x3d7fbcb9bd8587afU, 0x3d35ed4cbdc15fd9U, 0xbddee961bd129955U, 0x3c4e628f3dd2c7f8U,
  0xbe074c14bdb52969U, 0xbda63874bd0b3763U, 0x3e2e7010bd65ade1U, 0xbdd369eb3d13d2a1U,
  0xbcaef0cd3d9eee10U, 0xbd819272bc85a73eU, 0xbdafd55e3d0564e4U, 0x3b7d352b3d15d33cU,
  0x3cca816a3df48041U, 0xbe607fe73e033835U, 0x3cff559abd1e28c3U, 0x3d25e0a93dc250edU,
  0xbcf14b31bdc7472dU, 0x3d37d9af3c711da9U, 0x3e7754763ca61952U, 0x3d0979763ddb9712U,
  0x3d91b17d3e035181U, 0x3d8d98323a2f09c2U, 0x3d9b63ac3e12e871U, 0xbd568b463d06243aU,
  0x3c62fe183e704115U, 0xbd699dbf3da3419fU, 0xbdedf6e63d4bfa3dU, 0x3d2c6a203d6e796dU,
  0x3d067a433ce63e28U, 0x3e22e2e53d6ee3d8U, 0xbc6e10c83d5857d9U, 0xbe3ca6363d86c11bU,
  0x3e0c88afbdc8e55dU, 0x3e22888fbcb0f02dU, 0xbca22c3b3acc2314U, 0x3da3b4ddbd290d1dU,
  0x3d25711b3e258dedU, 0xbc75603d3d9616baU, 0x3cf2305c3dc368c6U, 0xbd57bf53bdc9e96fU,
  0x3c0de4d8be2b592fU, 0x3dadfeac3dd1c396U, 0x3bf90cd53e26c538U, 0x3c928ee83cb586ffU,
  0x3c51572e3d78794dU, 0xbb1e3679bccdc4bbU, 0xbe32eed43d507a03U, 0x3e11643e3d5c0bbfU,
  0x3d603a0e3d9d8046U, 0x3d2bc6553d2a2d30U, 0x3dbb42c7be38121bU, 0x3da12b8d3e3a1d4eU,
  0x3c33be2f3d3910fbU, 0x3d8838e43d9e0564U, 0x3dd2ee313da8fd33U, 0x396b4e7cbd784d28U,
  0xbc394943bca82314U, 0xbe016d363d180ff8U, 0x3d84742b3dad44b8U, 0xbe03ff71bda54cd6U,
  0x3cd1ec6bbd99faf3U, 0x3ceae20d3d4485f3U, 0x3cf02a603de19d39U, 0x3d0c070a3dfefc9bU,
  0xbdee3d18bd6a36b4U, 0xbe0d728d3d5d6cc7U, 0x3da8f41f3e0c4434U, 0x3d42077fbd02b464U,
  0x3dae4afc3c8ff4daU, 0x3da4b074bdaa7103U, 0x3e1790ff3c1c031eU, 0xbda328783d8fc964U,
  0xbc33a2cc3e2e0423U, 0x3e8c913cbdc2658bU, 0xbdcffe18bd921a72U, 0xbd18cb06bd4de647U,
  0xbd4b9fd43ddc1365U, 0x3d5849d4bc70ff46U, 0x3dd5fa913e1359d0U, 0x3ddab76a3cf54d7dU,
  0xbcbc20933c55f43dU, 0xbdf729d53b401553U, 0xbd912c58bd7e6eb1U, 0x3d208f42be0410afU,
  0x3daebb35bc30ccb9U, 0x3cd649223c8db117U, 0x3d428b4abd85311bU, 0xbd7e3e803d5edcd2U,
  0x3e4727eb3d284ea8U, 0xb7e6630b3eca9293U, 0xbe058b05bd389b6eU, 0xbe664d66bdc455ecU,
  0xbb880e55bd9c8836U, 0xbe890cd13d9b1b8cU, 0x3c3a4c86be27a47aU, 0xbce53ed8bb8ec4a5U,
  0xbc89574cbd557cb3U, 0xbd638006bd6a048fU, 0xbdb12d41bd6757a3U, 0x3b97d536be074609U,
  0xbc72f2bebd16385fU, 0xbe289eedbbfc08eeU, 0xbdd54c87bc8c853cU, 0xbd9a3c56bd7e7233U,
  0x3bdd0561bd95d13aU, 0x3e0ec0d1bdf22996U, 0x3b7e54eebcd77d3bU, 0x3c825a18bca828cfU,
  0xbdfbd2933d364d65U, 0xbb9a3fe23d49968fU, 0xbe2211e0be020302U, 0x3d2cf593bb2d7c13U,
  0xbe1da23fbe57f0e8U, 0xbcfd0e0b3df1c3d4U, 0xbd537fafbe27b217U, 0xbd90e97b3dd91d2bU,
  0x3e17a927bdaf49e4U, 0xbc81991ebd867760U, 0xbd0618debde7020cU, 0xbd6b0f7abb138e54U,
  0x3ab489873cf4f494U, 0xbca2a7cd3bbe76ccU, 0xbd9acd6bbd24ef3aU, 0x3db31a103dbaf1dfU,
